<sos> 0
<eos> 1
． 2
．@@ 3
・@@ 4
々 5
々@@ 6
ー 7
ー@@ 8
ーん 9
ーカー 10
ーク 11
ーザ 12
ーション 13
ージ 14
ージ@@ 15
ージェ@@ 16
ージャ@@ 17
ージョン 18
ース 19
ーズ 20
ーター 21
ーター@@ 22
ーチ 23
ーデ@@ 24
ート 25
ート@@ 26
ード 27
ード@@ 28
ーブ 29
ーム 30
ーム@@ 31
ーランド 32
ール 33
ール@@ 34
ールド 35
ールド@@ 36
ーン 37
−@@ 38
＆@@ 39
０ 40
０@@ 41
００ 42
１ 43
１@@ 44
２ 45
２@@ 46
３ 47
３@@ 48
４ 49
４@@ 50
５ 51
５@@ 52
６ 53
６@@ 54
７ 55
７@@ 56
８ 57
８@@ 58
９ 59
９@@ 60
Ａ 61
Ａ@@ 62
ＡＳ 63
ＡＳ@@ 64
ＡＴ@@ 65
ＡＴＲ 66
Ｂ 67
Ｂ@@ 68
Ｃ 69
Ｃ@@ 70
ＣＣ 71
ＣＤ 72
ＣＭ 73
ＣＳ@@ 74
Ｄ 75
Ｄ@@ 76
ＤＡ 77
ＤＰ 78
ＤＲ 79
ＤＳ@@ 80
Ｅ 81
Ｅ@@ 82
ＥＣ 83
Ｆ 84
Ｆ@@ 85
Ｆ０ 86
Ｆ１ 87
Ｆ２ 88
Ｇ 89
Ｇ@@ 90
ＧＡ 91
ＧＭＭ 92
ＧＰ 93
Ｈ 94
Ｈ@@ 95
ＨＭＭ 96
ＨＰ 97
ＨＲ@@ 98
ＨＲＴＦ 99
ＨＴ@@ 100
ＨＴＭＬ 101
Ｉ 102
Ｉ@@ 103
ＩＢ@@ 104
ＩＣ 105
ＩＤ 106
ＩＤ@@ 107
ＩＤＦ 108
ＩＰＡ 109
ＩＴ 110
Ｊ 111
Ｊ@@ 112
ＪＮ@@ 113
ＪＮＡＳ 114
ＪＲ 115
Ｋ 116
Ｋ@@ 117
Ｌ 118
Ｌ@@ 119
ＬＰ 120
ＬＰＣ 121
ＬＲ 122
ＬＳ@@ 123
ＬＳＰ 124
Ｍ 125
Ｍ@@ 126
ＭＡ@@ 127
ＭＣ@@ 128
ＭＣＴ 129
ＭＦ@@ 130
ＭＦＣＣ 131
ＭＬ 132
ＭＭ 133
ＭＰ@@ 134
ＭＲ@@ 135
ＭＲＩ 136
Ｎ 137
Ｎ@@ 138
ＮＨＫ 139
Ｏ 140
Ｏ@@ 141
ＯＨＰ 142
ＯＬ 143
ＯＳ 144
Ｐ 145
Ｐ@@ 146
ＰＡ 147
ＰＣ 148
ＰＤ 149
Ｑ 150
Ｑ@@ 151
Ｒ 152
Ｒ@@ 153
ＲＯ@@ 154
Ｓ 155
Ｓ@@ 156
ＳＡ@@ 157
ＳＮ 158
ＳＰ@@ 159
Ｔ 160
Ｔ@@ 161
ＴＦ 162
ＴＴ 163
Ｕ 164
Ｕ@@ 165
Ｖ 166
Ｖ@@ 167
Ｗ 168
Ｗ@@ 169
Ｘ 170
Ｘ@@ 171
ＸＭＬ 172
Ｙ 173
Ｙ@@ 174
Ｚ 175
Ｚ@@ 176
ａ 177
ａ@@ 178
ｂ 179
ｂ@@ 180
ｃ 181
ｃ@@ 182
ｄ 183
ｄ@@ 184
ｅ 185
ｅ@@ 186
ｆ 187
ｆ@@ 188
ｇ 189
ｇ@@ 190
ｈ 191
ｈ@@ 192
ｉ 193
ｉ@@ 194
ｊ 195
ｊ@@ 196
ｋ 197
ｋ@@ 198
ｌ 199
ｌ@@ 200
ｍ 201
ｍ@@ 202
ｎ 203
ｎ@@ 204
ｏ 205
ｏ@@ 206
ｐ 207
ｐ@@ 208
ｑ 209
ｑ@@ 210
ｒ 211
ｒ@@ 212
ｓ 213
ｓ@@ 214
ｔ 215
ｔ@@ 216
ｕ 217
ｕ@@ 218
ｖ 219
ｖ@@ 220
ｗ 221
ｗ@@ 222
ｘ 223
ｘ@@ 224
ｙ 225
ｙ@@ 226
ｚ 227
ぁ 228
ぁ@@ 229
あ 230
あ@@ 231
あー 232
あー@@ 233
あーの 234
あーのー 235
ああ 236
あい 237
あく@@ 238
あくまで 239
あげ 240
あげる 241
あそこ 242
あた 243
あた@@ 244
あたくし 245
あたし 246
あたっ 247
あちこち 248
あっ 249
あった@@ 250
あなた 251
あの 252
あのー 253
あまり 254
あら 255
あら@@ 256
あらゆる 257
あり 258
あり@@ 259
ある 260
ある@@ 261
あるいは 262
あれ 263
あれ@@ 264
あろ 265
あん 266
あん@@ 267
あんた 268
あんな 269
あんま 270
あんまり 271
ぃ 272
ぃ@@ 273
い 274
い@@ 275
いー 276
いい 277
いう 278
いえ 279
いか 280
いか@@ 281
いかに 282
いき 283
いき@@ 284
いきなり 285
いく 286
いけ 287
いける 288
いこ 289
いざ 290
いし 291
いじ@@ 292
いじめ 293
いす 294
いずれ 295
いた@@ 296
いたし 297
いただ@@ 298
いただい 299
いただき 300
いただく 301
いただけ 302
いただける 303
いただけれ 304
いち 305
いち@@ 306
いっ 307
いっ@@ 308
いっぱい 309
いつ 310
いは 311
いまだ 312
いや 313
いよいよ 314
いらっしゃ@@ 315
いらっしゃい 316
いらっしゃる 317
いる 318
いれ 319
いわ@@ 320
いわゆる 321
いん 322
ぅ 323
ぅ@@ 324
う 325
う@@ 326
うー 327
うーん 328
うう 329
うす 330
うち 331
うま@@ 332
うまい 333
うまく 334
うる@@ 335
うん 336
ぇ 337
ぇ@@ 338
え 339
え@@ 340
えー 341
えー@@ 342
えーっと 343
えーっとー 344
えーと 345
えーとー 346
ええ 347
えっ 348
えっと 349
えっとー 350
えと 351
えとー 352
える 353
えれ 354
えん 355
ぉ 356
ぉ@@ 357
お 358
お@@ 359
おー 360
おい 361
おい@@ 362
おいし 363
おいしい 364
おいしく 365
おお 366
おか@@ 367
おかしい 368
おかしく 369
おき 370
おく 371
おけ 372
おじ 373
おっ 374
おっき@@ 375
おっきい 376
おっきな 377
おっしゃ@@ 378
おっしゃっ 379
おと@@ 380
おば 381
おふくろ 382
おも 383
おも@@ 384
おやじ 385
およ@@ 386
およそ 387
および 388
おら 389
おり 390
おる 391
おん 392
おん@@ 393
おんなじ 394
お陰 395
お前 396
お腹 397
お洒落 398
か 399
か@@ 400
かい 401
かう 402
かかわ@@ 403
かかわっ 404
かかわら 405
かかわり 406
かかわる 407
かく 408
かけ 409
かさ 410
かし 411
かし@@ 412
かしい 413
かしく 414
かしら 415
かす 416
かせ 417
かっ 418
かつ 419
かつて 420
かなり 421
から 422
かり 423
かる 424
かわ@@ 425
かわい 426
かわい@@ 427
かわいい 428
かわいそう 429
かん 430
かん@@ 431
か月 432
か国 433
か所 434
が 435
が@@ 436
がい 437
がき 438
がたい 439
がち 440
がっ 441
がとう 442
がら 443
がり 444
がる 445
がん 446
が格 447
が谷 448
き 449
き@@ 450
きち@@ 451
きちっと 452
きちんと 453
きっ@@ 454
きっかけ 455
きっと 456
きつい 457
きゃ 458
きゅ 459
きょ 460
きょ@@ 461
きり 462
きる 463
きれ 464
きん 465
き出し 466
ぎ 467
ぎ@@ 468
ぎり 469
く 470
く@@ 471
くさい 472
くし 473
くす 474
くだ@@ 475
ください 476
くださっ 477
くださる 478
くっ 479
くっ@@ 480
くは 481
くらい 482
くる 483
くる@@ 484
くれ 485
くれる 486
くん 487
ぐ 488
ぐ@@ 489
ぐらい 490
ぐる 491
ぐる@@ 492
ぐるぐる 493
け 494
け@@ 495
けっ 496
けど 497
ける 498
けれ 499
けれど 500
けん 501
げ 502
げ@@ 503
げる 504
こ 505
こ@@ 506
こい 507
こいつ 508
こう 509
こう@@ 510
ここ 511
こそ 512
こだ@@ 513
こち 514
こちら 515
こちら@@ 516
こちら側 517
こっ 518
こっち 519
こつ 520
こと 521
こない@@ 522
こないだ 523
この 524
この@@ 525
この頃 526
これ 527
ころ 528
こん 529
こん@@ 530
こんな 531
ご 532
ご@@ 533
ごく 534
ござい 535
ごと 536
ごみ 537
ごめん 538
さ 539
さ@@ 540
さあ 541
さい 542
さえ 543
さく 544
さし 545
さすが 546
させ 547
させる 548
さっ 549
さっき 550
さて 551
さと 552
さま 553
さま@@ 554
さまざま 555
さる 556
さん 557
ざ 558
ざ@@ 559
ざい 560
ざっと 561
ざま 562
ざる 563
し 564
し@@ 565
しー 566
しい 567
しか 568
しか@@ 569
しかし 570
しかっ 571
しかも 572
しく 573
した 574
した@@ 575
したがい 576
したがっ 577
しっ 578
しっかり 579
して 580
しま@@ 581
しまい 582
しまう 583
しまえ 584
しまっ 585
しみ 586
しも 587
しゃ 588
しゃ@@ 589
しゅ 590
しゅ@@ 591
しゅう@@ 592
しょ 593
しょ@@ 594
しょう 595
しょっちゅう 596
しれ 597
しろ 598
しん 599
しん@@ 600
し方 601
じ 602
じ@@ 603
じく 604
じっ 605
じっと 606
じゃ 607
じゃ@@ 608
じゃっ 609
じゅ 610
じゅ@@ 611
じょ 612
じょ@@ 613
じる 614
す 615
す@@ 616
すー 617
すい 618
すが 619
すぐ 620
すこ 621
すす 622
すっ 623
すら 624
する 625
すれ 626
すん 627
すん@@ 628
ず 629
ず@@ 630
ずか 631
ずっと 632
ずつ 633
ずら 634
ずる 635
ずれ 636
せ 637
せ@@ 638
せい 639
せい@@ 640
せっ@@ 641
せっかく 642
せりふ 643
せる 644
せん 645
ぜ 646
ぜ@@ 647
そ 648
そ@@ 649
そい 650
そう 651
そう@@ 652
そこ 653
そこそこ 654
そして 655
そちら 656
そっ 657
そっち 658
その 659
そのー 660
そば 661
そも 662
そも@@ 663
そもそも 664
それ 665
それ@@ 666
それぞれ 667
そろ 668
そろ@@ 669
そろそろ 670
そん 671
そんな 672
ぞ 673
ぞ@@ 674
ぞれ 675
た 676
た@@ 677
たい 678
たかっ 679
たく 680
たく@@ 681
たくさん 682
ただ 683
ただ@@ 684
ただし 685
たち 686
たっ 687
たっ@@ 688
たった 689
たつ 690
たとえ 691
たば@@ 692
たばこ 693
たま 694
たま@@ 695
たまたま 696
たまに 697
たら 698
たり 699
たる 700
たん 701
たん@@ 702
だ 703
だ@@ 704
だい 705
だい@@ 706
だいぶ 707
だけ 708
だっ 709
だら 710
だら@@ 711
だり 712
だろ 713
だん 714
だん@@ 715
だんだん 716
ち 717
ち@@ 718
ちっ@@ 719
ちっちゃ@@ 720
ちっちゃい 721
ちなみ 722
ちゃ 723
ちゃ@@ 724
ちゃい 725
ちゃう 726
ちゃっ 727
ちゃん 728
ちゃんと 729
ちゅ 730
ちゅ@@ 731
ちゅう 732
ちょ 733
ちょ@@ 734
ちょう@@ 735
ちょうど 736
ちょっと 737
ちら 738
ちら@@ 739
ぢ 740
っ 741
っ@@ 742
っか 743
っかり 744
っき 745
っき@@ 746
っきり 747
っく 748
っく@@ 749
っくり 750
っけ 751
っこ 752
っしゃ@@ 753
っす 754
った@@ 755
ったり 756
っち 757
っち@@ 758
っちゅう 759
っちり 760
っつ@@ 761
っつう 762
っつっ 763
って 764
っと 765
っとー 766
っぱ 767
っぱ@@ 768
っぱい 769
っぽ@@ 770
っぽい 771
っ子 772
っ放し 773
つ 774
つ@@ 775
つい 776
つい@@ 777
つう 778
つか 779
つき 780
つく 781
つく@@ 782
つっ 783
つつ 784
つて 785
つまり 786
つもり 787
つら 788
つらい 789
つれ 790
づ 791
づ@@ 792
づらい 793
て 794
て@@ 795
てか 796
てく 797
てっ 798
てらっしゃ@@ 799
てらっしゃる 800
てる 801
てれ 802
てん 803
てん@@ 804
で 805
で@@ 806
でき 807
できる 808
できれ 809
でし 810
でしょ 811
です 812
でも 813
でる 814
と 815
と@@ 816
とー 817
とい 818
とぅ 819
とう 820
とう@@ 821
とえ 822
とき 823
とく 824
とこ 825
ところ 826
とっ 827
とて@@ 828
とても 829
とど@@ 830
とにかく 831
とも 832
とも@@ 833
ともかく 834
とり 835
とり@@ 836
とん 837
とん@@ 838
とんでも 839
ど 840
ど@@ 841
どぅ 842
どう 843
どう@@ 844
どうぞ 845
どこ 846
どちら 847
どっ 848
どっち 849
どの 850
どれ 851
どん 852
どん@@ 853
どんどん 854
どんな 855
な 856
な@@ 857
なー 858
ない 859
ない@@ 860
ないし 861
なお 862
なおかつ 863
なか 864
なか@@ 865
なかっ 866
なかなか 867
なかろ 868
ながら 869
なきゃ 870
なく 871
なく@@ 872
なくし 873
なくなっ 874
なくなり 875
なくなる 876
なけれ 877
なさ 878
なさい 879
なし 880
なじ 881
なす 882
なぜ 883
なた 884
なっ 885
など 886
なみ 887
なら 888
なり 889
なる 890
なる@@ 891
なるべく 892
なれ 893
なれる 894
なろ 895
なん 896
なん@@ 897
なんか 898
なんて 899
に 900
に@@ 901
におい 902
にく@@ 903
にくい 904
にくく 905
にち 906
にゅ 907
ぬ 908
ぬ@@ 909
ね 910
ね@@ 911
ねえ 912
ねる 913
の 914
の@@ 915
のー 916
のみ 917
のん@@ 918
のんびり 919
は 920
は@@ 921
はー 922
はい 923
はがき 924
はず 925
はっ 926
はっきり 927
はまっ 928
はやっ 929
はり 930
はる 931
はん 932
ば 933
ば@@ 934
ばい 935
ばか 936
ばかり 937
ばし 938
ばし@@ 939
ばす 940
ばら 941
ばら@@ 942
ばらつき 943
ばらばら 944
ばん 945
ぱ 946
ぱ@@ 947
ぱっと 948
ひ 949
ひ@@ 950
ひた@@ 951
ひたすら 952
ひっ 953
ひょ 954
ひょ@@ 955
ひょっと 956
び 957
び@@ 958
びっくり 959
びる 960
ぴ 961
ぴ@@ 962
ふ 963
ふ@@ 964
ふく@@ 965
ふと 966
ぶ 967
ぶ@@ 968
ぶつ@@ 969
ぶら@@ 970
ぶり 971
ぶん 972
ぷ 973
ぷ@@ 974
ぷり 975
へ 976
へ@@ 977
へん 978
べ 979
べ@@ 980
べき 981
べく 982
べる 983
ぺ 984
ぺ@@ 985
ほ 986
ほ@@ 987
ほい 988
ほしい 989
ほっと 990
ほど 991
ほぼ 992
ほん 993
ほん@@ 994
ほんの 995
ぼ 996
ぼ@@ 997
ぼう@@ 998
ぼけ 999
ぼろ 1000
ぼろ@@ 1001
ぽ 1002
ぽ@@ 1003
ま 1004
ま@@ 1005
まー 1006
まい 1007
まい@@ 1008
まいり 1009
まえ 1010
まか 1011
まさ@@ 1012
まさに 1013
まし 1014
ましい 1015
ましょ 1016
ます 1017
まず 1018
まず@@ 1019
まずい 1020
ませ 1021
また 1022
まだ 1023
まだ@@ 1024
まだまだ 1025
まっ 1026
まっ@@ 1027
まっすぐ 1028
まで 1029
まと@@ 1030
まとまっ 1031
まとまり 1032
まとめ 1033
まとめる 1034
まま 1035
まら 1036
まり 1037
まる 1038
まる@@ 1039
まるで 1040
まれ 1041
まん 1042
まんま 1043
み 1044
み@@ 1045
みたい 1046
みる 1047
みれ 1048
みんな 1049
む 1050
む@@ 1051
むしろ 1052
め 1053
め@@ 1054
めて 1055
める 1056
めん 1057
も 1058
も@@ 1059
もう 1060
もし 1061
もし@@ 1062
もしくは 1063
もた@@ 1064
もっ 1065
もっと 1066
もの 1067
もら@@ 1068
もらい 1069
もらう 1070
もらえ 1071
もらえる 1072
もらっ 1073
もり 1074
もん 1075
ゃ 1076
ゃ@@ 1077
や 1078
や@@ 1079
やか 1080
やがて 1081
やく 1082
やし 1083
やす 1084
やっ 1085
やっと 1086
やっぱ 1087
やっぱり 1088
やつ 1089
やはり 1090
やめ 1091
やや 1092
やら 1093
やり 1094
やり@@ 1095
やり取り 1096
やる 1097
やれ 1098
やろ 1099
やん 1100
ゅ 1101
ゅ@@ 1102
ゅう 1103
ゆ 1104
ゆ@@ 1105
ゆっくり 1106
ゆる 1107
ょ 1108
ょ@@ 1109
よ 1110
よ@@ 1111
よい 1112
よい@@ 1113
よいしょ 1114
よう 1115
よう@@ 1116
ようやく 1117
よく 1118
よっ 1119
より 1120
よる 1121
よれ 1122
よろ@@ 1123
よろしい 1124
よろしく 1125
ら 1126
ら@@ 1127
らい 1128
らか 1129
らかっ 1130
らぎ 1131
らく 1132
らし 1133
らしい 1134
らしく 1135
らす 1136
らせ 1137
らっしゃ@@ 1138
られ 1139
られる 1140
らん 1141
り 1142
り@@ 1143
りふ 1144
りゃ 1145
りょ 1146
りる 1147
り返@@ 1148
る 1149
る@@ 1150
れ 1151
れ@@ 1152
れど 1153
れる 1154
れれ 1155
れん 1156
ろ 1157
ろ@@ 1158
わ 1159
わ@@ 1160
わー 1161
わざ 1162
わざ@@ 1163
わざわざ 1164
わし 1165
わずか 1166
わっ 1167
わば 1168
わら 1169
わり 1170
わり@@ 1171
わりあい 1172
わりと 1173
わる 1174
を 1175
を@@ 1176
ん 1177
ん@@ 1178
んす 1179
んで 1180
んと 1181
んとー 1182
んな 1183
んぼ 1184
んま 1185
んん 1186
ァ 1187
ァ@@ 1188
ア 1189
ア@@ 1190
アー 1191
アー@@ 1192
アーティ@@ 1193
アーティスト 1194
アイ 1195
アイ@@ 1196
アイテ@@ 1197
アイテム 1198
アイデ@@ 1199
アイデア 1200
アウ@@ 1201
アウト 1202
アウト@@ 1203
アク@@ 1204
アクション 1205
アクセ@@ 1206
アクセス 1207
アクセント 1208
アクセント@@ 1209
アクセント型 1210
アシ@@ 1211
アジア 1212
アス 1213
アスペクト 1214
アップ 1215
アト@@ 1216
アド@@ 1217
アナ@@ 1218
アナウン@@ 1219
アナウンサー 1220
アナウンス 1221
アニ@@ 1222
アパート 1223
アフ@@ 1224
アフリカ 1225
アブ@@ 1226
アプリ@@ 1227
アプロ@@ 1228
アプローチ 1229
アム 1230
アメリ@@ 1231
アメリカ 1232
アラ@@ 1233
アラインメント 1234
アリング 1235
アル 1236
アル@@ 1237
アルゴ@@ 1238
アルゴリズム 1239
アルバ@@ 1240
アルバイト 1241
アルバム 1242
アレー 1243
アン 1244
アン@@ 1245
アンケート 1246
アンド 1247
ィ 1248
ィ@@ 1249
イ 1250
イ@@ 1251
イー@@ 1252
イギ@@ 1253
イギリス 1254
イコール 1255
イス 1256
イス@@ 1257
イスラム 1258
イズ 1259
イタ@@ 1260
イタリア 1261
イチ@@ 1262
イベ@@ 1263
イベント 1264
イメ@@ 1265
イメージ 1266
イラ@@ 1267
イル 1268
イル@@ 1269
イン 1270
イン@@ 1271
インタ@@ 1272
インター@@ 1273
インターネット 1274
インターフェース 1275
インターラ@@ 1276
インタビュー 1277
インデ@@ 1278
インデックス 1279
イント 1280
イント@@ 1281
イントネーション 1282
インド 1283
インド@@ 1284
インメント 1285
ゥ 1286
ゥ@@ 1287
ウ 1288
ウ@@ 1289
ウィ@@ 1290
ウイ@@ 1291
ウイルス 1292
ウインド@@ 1293
ウインドウズ 1294
ウェ@@ 1295
ウェア 1296
ウェブ 1297
ウェブ@@ 1298
ウェブページ 1299
ウエ@@ 1300
ウエート 1301
ウォ@@ 1302
ウサギ 1303
ウス 1304
ウム 1305
ウン 1306
ウン@@ 1307
ウント 1308
ウンド 1309
ェ 1310
ェ@@ 1311
エ 1312
エ@@ 1313
エーション 1314
エージェ@@ 1315
エージェント 1316
エア@@ 1317
エク@@ 1318
エコ@@ 1319
エジプト 1320
エス 1321
エス@@ 1322
エネ@@ 1323
エネルギー 1324
エピ@@ 1325
エピソード 1326
エラー 1327
エリア 1328
エル 1329
エレ@@ 1330
エン@@ 1331
エンジン 1332
エントロ@@ 1333
エントロピー 1334
ォ 1335
ォ@@ 1336
オ 1337
オ@@ 1338
オー@@ 1339
オークション 1340
オーケー 1341
オーストラリア 1342
オーディ@@ 1343
オーバー 1344
オープ@@ 1345
オープン 1346
オール 1347
オア 1348
オクター@@ 1349
オケ 1350
オフ 1351
オフィ@@ 1352
オブ 1353
オブ@@ 1354
オブジェクト 1355
オペ@@ 1356
オペレーター 1357
オリ@@ 1358
オリジ@@ 1359
オリジナル 1360
オリン@@ 1361
オリンピック 1362
オン 1363
オン@@ 1364
オントロ@@ 1365
オントロジー 1366
カ 1367
カ@@ 1368
カー 1369
カー@@ 1370
カード 1371
カイ 1372
カウン@@ 1373
カウント 1374
カット 1375
カット@@ 1376
カットオフ 1377
カップ 1378
カテ@@ 1379
カテゴ@@ 1380
カテゴリー 1381
カナダ 1382
カバー 1383
カメ@@ 1384
カメラ 1385
カラ@@ 1386
カラー 1387
カラオケ 1388
カリ@@ 1389
カリキュ@@ 1390
カリキュラム 1391
カル 1392
カル@@ 1393
カレー 1394
カン 1395
カン@@ 1396
ガ 1397
ガ@@ 1398
ガー 1399
ガイ@@ 1400
ガイド 1401
ガウス 1402
ガス 1403
ガソ@@ 1404
ガラス 1405
キ 1406
キ@@ 1407
キー 1408
キー@@ 1409
キーワード 1410
キシ@@ 1411
キャ@@ 1412
キャン@@ 1413
キャンプ 1414
キュ@@ 1415
キュー 1416
キュー@@ 1417
キリスト 1418
キロ 1419
キロ@@ 1420
キロヘルツ 1421
キング 1422
キング@@ 1423
ギ 1424
ギ@@ 1425
ギー 1426
ギャ@@ 1427
ギュ@@ 1428
ギョ@@ 1429
ク 1430
ク@@ 1431
クー@@ 1432
クエ@@ 1433
クション 1434
クス 1435
クター 1436
クター@@ 1437
クティブ 1438
クト 1439
クト@@ 1440
クトル 1441
クラ@@ 1442
クラシ@@ 1443
クラス 1444
クラス@@ 1445
クラスタ@@ 1446
クラスター 1447
クラスタリング 1448
クラブ 1449
クリ@@ 1450
クリー@@ 1451
クリーム 1452
クリーン 1453
クリスマス 1454
クル 1455
クレ@@ 1456
クロ@@ 1457
クロー@@ 1458
クロス 1459
グ 1460
グ@@ 1461
グラ@@ 1462
グラウンド 1463
グラフ 1464
グラフィ@@ 1465
グラム 1466
グラム@@ 1467
グリ@@ 1468
グリー@@ 1469
グルー@@ 1470
グループ 1471
ケ 1472
ケ@@ 1473
ケー 1474
ケー@@ 1475
ケーキ 1476
ケーション 1477
ケージ 1478
ケース 1479
ケート 1480
ケット 1481
ケプ@@ 1482
ケプストラ@@ 1483
ケプストラム 1484
ゲ 1485
ゲ@@ 1486
ゲーム 1487
ゲーム@@ 1488
ゲスト 1489
ゲン 1490
コ 1491
コ@@ 1492
コー@@ 1493
コース 1494
コーダー 1495
コーディング 1496
コート 1497
コード 1498
コード@@ 1499
コードブック 1500
コーナー 1501
コーパス 1502
コーヒ@@ 1503
コーヒー 1504
コール 1505
コウ@@ 1506
コウモリ 1507
コスト 1508
コピー 1509
コミュ@@ 1510
コミュニ@@ 1511
コミュニケーション 1512
コメント 1513
コン 1514
コン@@ 1515
コンサ@@ 1516
コンサート 1517
コンテキスト 1518
コントロール 1519
コンパ@@ 1520
コンビ@@ 1521
コンビニ 1522
コンピュ@@ 1523
コンピューター 1524
コンフィ@@ 1525
コンフィデンス@@ 1526
コンフィデンスメジャー 1527
ゴ 1528
ゴ@@ 1529
ゴー@@ 1530
ゴール 1531
ゴール@@ 1532
ゴル@@ 1533
ゴルフ 1534
サ 1535
サ@@ 1536
サー 1537
サー@@ 1538
サークル 1539
サーチ 1540
サービ@@ 1541
サービス 1542
サイ@@ 1543
サイクル 1544
サイズ 1545
サイト 1546
サイン 1547
サス 1548
サッカー 1549
サバイ@@ 1550
サブ@@ 1551
サポート 1552
サラ@@ 1553
サラリーマン 1554
サン@@ 1555
サンプ@@ 1556
サンプリング 1557
サンプル 1558
ザ 1559
ザ@@ 1560
ザー 1561
ザー@@ 1562
シ 1563
シ@@ 1564
シー 1565
シー@@ 1566
シーズン 1567
シート 1568
シーン 1569
シア 1570
シェ@@ 1571
システ@@ 1572
システム 1573
シソー@@ 1574
シソーラス 1575
シティー 1576
シドニー 1577
シナ@@ 1578
シフト 1579
シミュ@@ 1580
シミュレーション 1581
シャ@@ 1582
シャル 1583
シャン@@ 1584
シュ@@ 1585
ショ@@ 1586
ショー 1587
ショッ@@ 1588
ショック 1589
ショップ 1590
ショナル 1591
ション 1592
ション@@ 1593
シラ@@ 1594
シラブル 1595
シリーズ 1596
シン@@ 1597
シング 1598
ジ 1599
ジ@@ 1600
ジー 1601
ジア 1602
ジェ@@ 1603
ジェクト 1604
ジオ 1605
ジャ@@ 1606
ジャー 1607
ジャン@@ 1608
ジャンル 1609
ジュ@@ 1610
ジュース 1611
ジョ@@ 1612
ジョン 1613
ジン 1614
ス 1615
ス@@ 1616
スー@@ 1617
スーパー 1618
スイ@@ 1619
スカ@@ 1620
スキ@@ 1621
スキー 1622
スキー@@ 1623
スキーマ 1624
スク 1625
スク@@ 1626
スケ@@ 1627
スケール 1628
スケジュール 1629
スコ@@ 1630
スコー@@ 1631
スコープ 1632
スコア 1633
スタ@@ 1634
スター 1635
スター@@ 1636
スタート 1637
スタイ@@ 1638
スタイル 1639
スタジオ 1640
スタッフ 1641
スタン@@ 1642
スタンス 1643
スタント 1644
ステ@@ 1645
ステージ 1646
スティ@@ 1647
スティック 1648
ステップ 1649
スト 1650
スト@@ 1651
ストー@@ 1652
ストーリー 1653
ストラ 1654
ストラ@@ 1655
ストレス 1656
スパ@@ 1657
スパゲ@@ 1658
スピ@@ 1659
スピーカー 1660
スピーチ 1661
スピード 1662
スペ@@ 1663
スペース 1664
スペイン 1665
スペクト 1666
スペクトル 1667
スポ@@ 1668
スポー@@ 1669
スポーツ 1670
スポーツ@@ 1671
スポン@@ 1672
スマ@@ 1673
スム@@ 1674
スライ@@ 1675
スリー 1676
スロ@@ 1677
スロット 1678
スン 1679
ズ 1680
ズ@@ 1681
ズム 1682
ズン 1683
セ 1684
セ@@ 1685
セカ@@ 1686
セカンド 1687
セクション 1688
セグ@@ 1689
セグメント 1690
セス 1691
セック 1692
セッション 1693
セット 1694
セル 1695
セル@@ 1696
セン@@ 1697
センサー 1698
センター 1699
センチ 1700
セント 1701
セント@@ 1702
ゼ 1703
ゼ@@ 1704
ゼーション 1705
ソ 1706
ソ@@ 1707
ソー@@ 1708
ソース 1709
ソード 1710
ソフト 1711
ソフト@@ 1712
ソフトウェア 1713
ソル@@ 1714
ソルブ 1715
ソン 1716
ゾ 1717
ゾ@@ 1718
タ 1719
タ@@ 1720
ター 1721
ター@@ 1722
ターゲ@@ 1723
ターゲット 1724
ターム 1725
ターン 1726
タイ 1727
タイ@@ 1728
タイトル 1729
タイプ 1730
タイミング 1731
タイム 1732
タイム@@ 1733
タウン 1734
タク@@ 1735
タクシー 1736
タグ 1737
タスク 1738
タリング 1739
タル 1740
タル@@ 1741
タン 1742
タン@@ 1743
ダ 1744
ダ@@ 1745
ダー 1746
ダー@@ 1747
ダイ@@ 1748
ダイエット 1749
ダイナミ@@ 1750
ダウン 1751
ダクション 1752
ダム 1753
ダル 1754
ダン@@ 1755
ダンス 1756
チ 1757
チ@@ 1758
チー@@ 1759
チーズ 1760
チーム 1761
チェ@@ 1762
チェック 1763
チケット 1764
チック 1765
チャ@@ 1766
チャー 1767
チャー@@ 1768
チャン@@ 1769
チャンス 1770
チャンネル 1771
チュ@@ 1772
チョ@@ 1773
チン 1774
チン@@ 1775
ッ 1776
ッ@@ 1777
ッキー 1778
ック 1779
ック@@ 1780
ックス 1781
ッシ@@ 1782
ッシャ@@ 1783
ッシャー 1784
ッシュ 1785
ッシュ@@ 1786
ッション 1787
ッジ 1788
ッセ@@ 1789
ッセージ 1790
ッチ 1791
ッチ@@ 1792
ッチング 1793
ッツ 1794
ッティー 1795
ッティング 1796
ット 1797
ット@@ 1798
ッド 1799
ッド@@ 1800
ップ 1801
ップ@@ 1802
ップル 1803
ツ 1804
ツ@@ 1805
ツー 1806
ツール 1807
ツアー 1808
ツリー 1809
テ 1810
テ@@ 1811
テー@@ 1812
テーション 1813
テーブル 1814
テープ 1815
テーマ 1816
ティ@@ 1817
ティー 1818
ティー@@ 1819
ティック 1820
ティブ 1821
ティブ@@ 1822
ティング 1823
テキ@@ 1824
テキスト 1825
テキスト@@ 1826
テク@@ 1827
テスト 1828
テスト@@ 1829
テストセット 1830
テニ@@ 1831
テニス 1832
テル 1833
テレ@@ 1834
テレビ 1835
テレビ@@ 1836
テン 1837
テン@@ 1838
テンス 1839
テント 1840
デ 1841
デ@@ 1842
デー 1843
データー 1844
データー@@ 1845
データーベース 1846
ディ@@ 1847
ディー 1848
ディー@@ 1849
ディク@@ 1850
ディクテーション 1851
ディス@@ 1852
ディズニー 1853
ディング 1854
デコーダー 1855
デザ@@ 1856
デザイン 1857
デシ@@ 1858
デシベル 1859
デジ@@ 1860
デジタル 1861
デパート 1862
デビュー 1863
デュ@@ 1864
デン@@ 1865
デンス@@ 1866
ト 1867
ト@@ 1868
トー@@ 1869
トイ@@ 1870
トイレ 1871
トゥ@@ 1872
トゥー 1873
トップ 1874
トナ@@ 1875
トピック 1876
トマ@@ 1877
トマト 1878
トラ@@ 1879
トライ@@ 1880
トライグラム 1881
トライホン 1882
トラック 1883
トラン@@ 1884
トランス@@ 1885
トリ@@ 1886
トリック 1887
トル 1888
トル@@ 1889
トレ@@ 1890
トレー@@ 1891
トレーニング 1892
トロ@@ 1893
トン 1894
トン@@ 1895
ド 1896
ド@@ 1897
ドー@@ 1898
ドアー 1899
ドイ@@ 1900
ドイツ 1901
ドッ@@ 1902
ドメ@@ 1903
ドメイン 1904
ドラ@@ 1905
ドライ@@ 1906
ドラマ 1907
ドル 1908
ナ 1909
ナ@@ 1910
ナー 1911
ナイ@@ 1912
ナイフ 1913
ナス 1914
ナル 1915
ナル@@ 1916
ナン@@ 1917
ナンバー 1918
ニ 1919
ニ@@ 1920
ニー 1921
ニーズ 1922
ニア 1923
ニオン 1924
ニズム 1925
ニック 1926
ニュ@@ 1927
ニュー 1928
ニュー@@ 1929
ニュース 1930
ニューヨーク 1931
ニューラル 1932
ニン@@ 1933
ニング 1934
ニング@@ 1935
ニンニク 1936
ヌ 1937
ヌ@@ 1938
ネ 1939
ネ@@ 1940
ネー@@ 1941
ネーション 1942
ネーバーフッド 1943
ネイ@@ 1944
ネギ 1945
ネス 1946
ネス@@ 1947
ネット 1948
ネット@@ 1949
ネットワーク 1950
ネル 1951
ノ 1952
ノ@@ 1953
ノー@@ 1954
ノート 1955
ノード 1956
ノーマル 1957
ノイズ 1958
ハ 1959
ハ@@ 1960
ハー@@ 1961
ハード@@ 1962
ハイ@@ 1963
ハイパー@@ 1964
ハイパーパラメーター 1965
ハウス 1966
ハワイ 1967
ハン@@ 1968
バ 1969
バ@@ 1970
バー 1971
バー@@ 1972
バージョン 1973
バイ@@ 1974
バイグラム 1975
バイト 1976
バス 1977
バス@@ 1978
バター 1979
バッ@@ 1980
バック 1981
バック@@ 1982
バナ@@ 1983
バナナ 1984
バブル 1985
バランス 1986
バリ@@ 1987
バリエーション 1988
バル 1989
バル@@ 1990
バン@@ 1991
バンド 1992
パ 1993
パ@@ 1994
パー 1995
パー@@ 1996
パーセント 1997
パーティー 1998
パート 1999
パープレキシティー 2000
パイ@@ 2001
パス 2002
パス@@ 2003
パソ@@ 2004
パソコン 2005
パターン 2006
パッ@@ 2007
パック 2008
パラ 2009
パラ@@ 2010
パラメーター 2011
パリ 2012
パル@@ 2013
パルス 2014
パワー 2015
パン 2016
パン@@ 2017
ヒ 2018
ヒ@@ 2019
ヒット 2020
ビ 2021
ビ@@ 2022
ビー 2023
ビー@@ 2024
ビート@@ 2025
ビーム 2026
ビーム@@ 2027
ビール 2028
ビア 2029
ビジ@@ 2030
ビジネス 2031
ビット 2032
ビデ@@ 2033
ビデオ 2034
ビュー 2035
ビル 2036
ビング 2037
ピ 2038
ピ@@ 2039
ピー 2040
ピー@@ 2041
ピーク 2042
ピア@@ 2043
ピアノ 2044
ピック 2045
ピッチ 2046
ピッチ@@ 2047
ピッチパターン 2048
ピュ@@ 2049
ピン 2050
ピン@@ 2051
ピンク 2052
ピング 2053
フ 2054
フ@@ 2055
フー@@ 2056
ファ@@ 2057
ファー 2058
ファー@@ 2059
ファースト@@ 2060
ファイ@@ 2061
ファイル 2062
ファミ@@ 2063
ファン 2064
ファン@@ 2065
フィ@@ 2066
フィードバック 2067
フィールド 2068
フィラー 2069
フィル@@ 2070
フィルター 2071
フェ 2072
フェ@@ 2073
フェース 2074
フォ@@ 2075
フォー@@ 2076
フォーマ@@ 2077
フッド 2078
フト 2079
フラ@@ 2080
フライ 2081
フライ@@ 2082
フランス 2083
フリー 2084
フリー@@ 2085
フル@@ 2086
フレ@@ 2087
フレー@@ 2088
フレーズ 2089
フレーム 2090
フロ@@ 2091
ブ 2092
ブ@@ 2093
ブー@@ 2094
ブーム 2095
ブック 2096
ブド@@ 2097
ブラ@@ 2098
ブラリー 2099
ブランド 2100
ブリ@@ 2101
ブル 2102
ブル@@ 2103
ブルー 2104
ブレ@@ 2105
ブレー@@ 2106
ブロック 2107
ブン 2108
プ 2109
プ@@ 2110
プール 2111
プト 2112
プラ@@ 2113
プライ@@ 2114
プラス 2115
プラス@@ 2116
プラン 2117
プラン@@ 2118
プリ@@ 2119
プリント 2120
プル 2121
プレ@@ 2122
プレー 2123
プレー@@ 2124
プレート 2125
プレーヤー 2126
プレキシティー 2127
プレゼ@@ 2128
プロ 2129
プロ@@ 2130
プログラム 2131
プロジェクト 2132
プロセス 2133
プロット 2134
プロト@@ 2135
ヘ 2136
ヘ@@ 2137
ヘッド@@ 2138
ヘル@@ 2139
ヘルツ 2140
ベ 2141
ベ@@ 2142
ベー@@ 2143
ベース 2144
ベース@@ 2145
ベースライン 2146
ベート 2147
ベクトル 2148
ベスト 2149
ベット 2150
ベッド 2151
ベル 2152
ベル@@ 2153
ベン@@ 2154
ペ 2155
ペ@@ 2156
ペー@@ 2157
ページ 2158
ペース 2159
ペア 2160
ペット 2161
ペット@@ 2162
ペン 2163
ペン@@ 2164
ホ 2165
ホ@@ 2166
ホーム 2167
ホーム@@ 2168
ホームページ 2169
ホール 2170
ホスト 2171
ホテル 2172
ホル@@ 2173
ホルマ@@ 2174
ホルマント 2175
ホワイ@@ 2176
ホワイト@@ 2177
ホン 2178
ボ 2179
ボ@@ 2180
ボー@@ 2181
ボード 2182
ボール 2183
ボイス 2184
ボタン 2185
ボット 2186
ボラン@@ 2187
ボランティ@@ 2188
ボランティア 2189
ボリ@@ 2190
ポ 2191
ポ@@ 2192
ポー@@ 2193
ポーズ 2194
ポート 2195
ポート@@ 2196
ポートフォリオ 2197
ポール 2198
ポイント 2199
ポジ@@ 2200
ポスト 2201
ポスト@@ 2202
ポテ@@ 2203
ポピュ@@ 2204
ポピュラー 2205
ポライトネス 2206
マ 2207
マ@@ 2208
マー 2209
マー@@ 2210
マーク 2211
マーケ@@ 2212
マーケティング 2213
マイ@@ 2214
マイク 2215
マイクロ@@ 2216
マイクロホン 2217
マイナ@@ 2218
マイナス 2219
マス@@ 2220
マスコミ 2221
マッ@@ 2222
マッチ 2223
マッチング 2224
マナー 2225
マニュ@@ 2226
マニュアル 2227
マネ@@ 2228
マラソン 2229
マル 2230
マル@@ 2231
マルチ@@ 2232
マン 2233
マン@@ 2234
マンション 2235
ミ 2236
ミ@@ 2237
ミー 2238
ミー@@ 2239
ミス 2240
ミスマッチ 2241
ミット 2242
ミニ@@ 2243
ミュ@@ 2244
ミュージ@@ 2245
ミリ 2246
ミリ@@ 2247
ミリセカンド 2248
ミン 2249
ミング 2250
ム 2251
ム@@ 2252
メ 2253
メ@@ 2254
メー@@ 2255
メーカー 2256
メーション 2257
メーター 2258
メートル 2259
メール 2260
メーン 2261
メカ@@ 2262
メカニズム 2263
メジャー 2264
メタ 2265
メタ@@ 2266
メッセージ 2267
メディ@@ 2268
メディア 2269
メニュー 2270
メモ 2271
メモ@@ 2272
メモリー 2273
メリ@@ 2274
メリット 2275
メル@@ 2276
メロ@@ 2277
メロディー 2278
メン 2279
メン@@ 2280
メント 2281
メンバー 2282
モ 2283
モ@@ 2284
モー@@ 2285
モーダル 2286
モード 2287
モーラ 2288
モーラ@@ 2289
モーラ数 2290
モジュール 2291
モダ@@ 2292
モダリティー 2293
モデ@@ 2294
モデル 2295
モニ@@ 2296
モノ@@ 2297
モバイ@@ 2298
モリ 2299
モン 2300
モン@@ 2301
ャ 2302
ャ@@ 2303
ヤ 2304
ヤ@@ 2305
ヤー 2306
ヤマ@@ 2307
ュ 2308
ュ@@ 2309
ュー 2310
ュー@@ 2311
ユ 2312
ユ@@ 2313
ユー@@ 2314
ユーザー 2315
ユダヤ 2316
ユニ@@ 2317
ョ 2318
ョ@@ 2319
ヨ 2320
ヨ@@ 2321
ヨー@@ 2322
ヨーク 2323
ヨーロッパ 2324
ラ 2325
ラ@@ 2326
ラー 2327
ラー@@ 2328
ラーメン 2329
ライ@@ 2330
ライター 2331
ライト 2332
ライフ@@ 2333
ライブ 2334
ライン 2335
ラジオ 2336
ラス 2337
ラス@@ 2338
ラベル 2339
ラム 2340
ラル 2341
ラル@@ 2342
ラン 2343
ラン@@ 2344
ランク 2345
ランス 2346
ランダ 2347
ランダム 2348
ランド 2349
リ 2350
リ@@ 2351
リー 2352
リー@@ 2353
リーグ 2354
リーズ 2355
リート 2356
リーマン 2357
リア 2358
リア@@ 2359
リアル@@ 2360
リオ 2361
リサイクル 2362
リシ@@ 2363
リス 2364
リスク 2365
リスト 2366
リズム 2367
リソース 2368
リゾ@@ 2369
リティー 2370
リラ@@ 2371
リラックス 2372
リン 2373
リン@@ 2374
リンク 2375
リング 2376
リング@@ 2377
リンゴ 2378
ル 2379
ル@@ 2380
ルー 2381
ルー@@ 2382
ルート 2383
ルーマン 2384
ルーム 2385
ルール 2386
ルギー 2387
ルク 2388
ルス 2389
ルズ 2390
ルト 2391
レ 2392
レ@@ 2393
レー 2394
レー@@ 2395
レーション 2396
レーター 2397
レート 2398
レクト 2399
レコード 2400
レジュメ 2401
レス 2402
レストラン 2403
レスポ@@ 2404
レスポンス 2405
レッ@@ 2406
レッスン 2407
レット 2408
レベル 2409
レポート 2410
レン@@ 2411
レンジ 2412
レント 2413
ロ 2414
ロ@@ 2415
ロー 2416
ロー@@ 2417
ロード 2418
ロール 2419
ログ 2420
ロシア 2421
ロジ@@ 2422
ロジー 2423
ロッ@@ 2424
ロック 2425
ロボット 2426
ロン 2427
ロン@@ 2428
ロンドン 2429
ワ 2430
ワ@@ 2431
ワー 2432
ワー@@ 2433
ワーキング@@ 2434
ワーク 2435
ワーク@@ 2436
ワード 2437
ワード@@ 2438
ワールド@@ 2439
ワールドカップ 2440
ワイ 2441
ワイ@@ 2442
ワイン 2443
ワン 2444
ヲ 2445
ン 2446
ン@@ 2447
ング 2448
ング@@ 2449
ングル 2450
ンス 2451
ント 2452
ント@@ 2453
ンド 2454
ンド@@ 2455
ヴ 2456
ヴ@@ 2457
Β 2458
Γ 2459
Δ 2460
Δ@@ 2461
Θ 2462
Κ 2463
Λ 2464
Λ@@ 2465
Σ 2466
Σ@@ 2467
Φ 2468
Φ@@ 2469
Ψ 2470
Ω@@ 2471
α 2472
α@@ 2473
β 2474
β@@ 2475
γ 2476
γ@@ 2477
δ 2478
δ@@ 2479
ε 2480
η 2481
θ 2482
θ@@ 2483
κ 2484
λ 2485
λ@@ 2486
μ 2487
μ@@ 2488
ν 2489
ξ 2490
ξ@@ 2491
π 2492
π@@ 2493
ρ 2494
σ 2495
σ@@ 2496
τ 2497
τ@@ 2498
φ 2499
φ@@ 2500
χ 2501
ψ 2502
ψ@@ 2503
ω 2504
ω@@ 2505
亜 2506
亜@@ 2507
唖 2508
阿@@ 2509
哀@@ 2510
愛 2511
愛@@ 2512
愛情 2513
挨拶 2514
姶@@ 2515
葵 2516
悪 2517
悪@@ 2518
悪い 2519
悪かっ 2520
悪く 2521
握 2522
握@@ 2523
渥@@ 2524
旭@@ 2525
芦 2526
芦@@ 2527
梓 2528
圧 2529
圧@@ 2530
圧縮 2531
圧倒 2532
斡@@ 2533
扱@@ 2534
扱い 2535
扱う 2536
扱っ 2537
扱わ 2538
宛@@ 2539
飴 2540
綾@@ 2541
鮎@@ 2542
安 2543
安@@ 2544
安い 2545
安く 2546
安心 2547
安全 2548
安定 2549
庵 2550
庵@@ 2551
按@@ 2552
暗 2553
暗@@ 2554
暗い 2555
案 2556
案@@ 2557
案内 2558
闇 2559
闇@@ 2560
鞍@@ 2561
杏@@ 2562
以 2563
以@@ 2564
以下 2565
以外 2566
以後 2567
以降 2568
以上 2569
以前 2570
以内 2571
以来 2572
伊 2573
伊@@ 2574
位 2575
位@@ 2576
位相 2577
位置 2578
依 2579
依@@ 2580
依存 2581
依頼 2582
偉 2583
偉@@ 2584
囲 2585
囲@@ 2586
囲ま 2587
夷 2588
委@@ 2589
委員 2590
委託 2591
威 2592
威@@ 2593
意 2594
意@@ 2595
意外 2596
意義 2597
意見 2598
意志 2599
意思 2600
意識 2601
意図 2602
意味 2603
慰@@ 2604
易 2605
易@@ 2606
易い 2607
易く 2608
椅子 2609
為 2610
為@@ 2611
畏@@ 2612
異 2613
異@@ 2614
異なっ 2615
異なり 2616
異なる 2617
異常 2618
移 2619
移@@ 2620
移っ 2621
移り 2622
移行 2623
移動 2624
維 2625
維@@ 2626
維持 2627
緯 2628
緯@@ 2629
胃 2630
胃@@ 2631
萎@@ 2632
衣 2633
衣@@ 2634
違 2635
違@@ 2636
違い 2637
違う 2638
違っ 2639
違反 2640
遺 2641
遺@@ 2642
遺跡 2643
遺伝 2644
医 2645
医@@ 2646
医学 2647
医者 2648
医療 2649
井 2650
井@@ 2651
域 2652
育 2653
育@@ 2654
育ち 2655
育っ 2656
育て 2657
育てる 2658
育児 2659
育成 2660
郁@@ 2661
磯 2662
磯@@ 2663
一 2664
一@@ 2665
一応 2666
一貫 2667
一気 2668
一見 2669
一言 2670
一時 2671
一種 2672
一瞬 2673
一緒 2674
一人 2675
一人@@ 2676
一人一人 2677
一生 2678
一切 2679
一千 2680
一体 2681
一旦 2682
一致 2683
一定 2684
一二 2685
一日 2686
一般 2687
一番 2688
一部 2689
一歩 2690
一方 2691
一面 2692
一様 2693
一覧 2694
壱@@ 2695
溢 2696
溢@@ 2697
溢れ 2698
逸@@ 2699
稲 2700
稲@@ 2701
茨@@ 2702
芋 2703
芋@@ 2704
印 2705
印@@ 2706
印刷 2707
印象 2708
咽@@ 2709
員 2710
因 2711
因@@ 2712
因果 2713
因子 2714
姻 2715
引 2716
引@@ 2717
引い 2718
引か 2719
引き 2720
引き@@ 2721
引く 2722
引っ@@ 2723
引っ越し 2724
引っ張っ 2725
引用 2726
飲@@ 2727
飲ま 2728
飲み 2729
飲み@@ 2730
飲む 2731
飲ん 2732
胤 2733
院 2734
院@@ 2735
陰 2736
陰@@ 2737
隠 2738
隠@@ 2739
隠れ 2740
韻 2741
韻@@ 2742
韻律 2743
右 2744
右@@ 2745
右側 2746
宇 2747
宇@@ 2748
宇宙 2749
烏 2750
烏@@ 2751
羽 2752
羽@@ 2753
迂 2754
迂@@ 2755
雨 2756
雨@@ 2757
卯 2758
鵜@@ 2759
窺@@ 2760
丑@@ 2761
碓@@ 2762
臼 2763
臼@@ 2764
渦 2765
渦@@ 2766
嘘 2767
嘘@@ 2768
姥 2769
姥@@ 2770
浦 2771
浦@@ 2772
浦和 2773
瓜 2774
噂 2775
噂@@ 2776
云@@ 2777
運 2778
運@@ 2779
運ん 2780
運営 2781
運転 2782
運動 2783
運用 2784
雲 2785
雲@@ 2786
荏 2787
餌 2788
営 2789
営@@ 2790
営業 2791
嬰@@ 2792
影 2793
影@@ 2794
影響 2795
映 2796
映@@ 2797
映画 2798
映像 2799
栄 2800
栄@@ 2801
栄養 2802
永 2803
永@@ 2804
泳 2805
泳@@ 2806
泳い 2807
洩 2808
盈 2809
英 2810
英@@ 2811
英語 2812
衛 2813
衛@@ 2814
詠 2815
詠@@ 2816
鋭 2817
鋭@@ 2818
液 2819
液@@ 2820
疫 2821
疫@@ 2822
益 2823
益@@ 2824
益々 2825
駅 2826
駅@@ 2827
駅前 2828
悦 2829
悦@@ 2830
越 2831
越@@ 2832
越え 2833
越し 2834
閲 2835
閲@@ 2836
円 2837
円@@ 2838
園 2839
園@@ 2840
宴 2841
宴@@ 2842
延 2843
延@@ 2844
延ばし 2845
延び 2846
延長 2847
怨 2848
援 2849
援@@ 2850
援助 2851
沿@@ 2852
沿い 2853
沿っ 2854
演 2855
演@@ 2856
演劇 2857
演算 2858
演出 2859
演奏 2860
炎 2861
炎@@ 2862
煙 2863
煙@@ 2864
猿 2865
猿@@ 2866
縁 2867
縁@@ 2868
艶 2869
苑 2870
遠 2871
遠@@ 2872
遠い 2873
遠く 2874
鉛@@ 2875
鉛筆 2876
塩 2877
塩@@ 2878
於 2879
汚@@ 2880
汚い 2881
汚れ 2882
汚染 2883
甥 2884
凹 2885
凹@@ 2886
奥 2887
奥@@ 2888
往 2889
往@@ 2890
応 2891
応@@ 2892
応じ 2893
応援 2894
応答 2895
応用 2896
押@@ 2897
押し 2898
押し@@ 2899
押す 2900
旺@@ 2901
横 2902
横@@ 2903
横軸 2904
横浜 2905
欧 2906
欧@@ 2907
欧米 2908
殴@@ 2909
王 2910
王@@ 2911
王子 2912
翁 2913
襖 2914
鴬 2915
鴎@@ 2916
黄 2917
黄@@ 2918
黄色 2919
岡 2920
岡@@ 2921
沖 2922
沖@@ 2923
沖縄 2924
荻@@ 2925
億 2926
億@@ 2927
屋 2928
屋@@ 2929
屋根 2930
臆@@ 2931
桶 2932
牡@@ 2933
乙 2934
俺 2935
卸@@ 2936
恩 2937
恩@@ 2938
温 2939
温@@ 2940
温泉 2941
温度 2942
穏 2943
穏@@ 2944
音 2945
音@@ 2946
音圧 2947
音韻 2948
音楽 2949
音感 2950
音響 2951
音源 2952
音質 2953
音色 2954
音声 2955
音節 2956
音素 2957
音像 2958
音調 2959
音波 2960
音符 2961
下 2962
下@@ 2963
下がっ 2964
下がり 2965
下がる 2966
下げ 2967
下り 2968
下ろ@@ 2969
下ろし 2970
下位 2971
下降 2972
下手 2973
下町 2974
化 2975
化@@ 2976
化学 2977
化粧 2978
仮 2979
仮@@ 2980
仮説 2981
仮定 2982
仮名 2983
何 2984
何@@ 2985
何々 2986
何しろ 2987
何に 2988
何十 2989
伽@@ 2990
価 2991
価@@ 2992
価格 2993
価値 2994
加 2995
加@@ 2996
加え 2997
加える 2998
加減 2999
加工 3000
加藤 3001
可 3002
可@@ 3003
可能 3004
嘉@@ 3005
夏 3006
夏@@ 3007
夏休み 3008
嫁 3009
家 3010
家@@ 3011
家族 3012
家庭 3013
寡@@ 3014
科 3015
科@@ 3016
科学 3017
科目 3018
暇 3019
果@@ 3020
果た@@ 3021
果たし 3022
果たして 3023
果物 3024
架 3025
架@@ 3026
歌 3027
歌@@ 3028
歌い 3029
歌う 3030
歌っ 3031
河 3032
河@@ 3033
火 3034
火@@ 3035
火山 3036
稼@@ 3037
箇 3038
箇@@ 3039
箇所 3040
花 3041
花@@ 3042
花火 3043
苛@@ 3044
荷 3045
荷@@ 3046
荷物 3047
華 3048
華@@ 3049
菓 3050
菓子 3051
蝦@@ 3052
課 3053
課@@ 3054
課題 3055
貨 3056
貨@@ 3057
迦 3058
過 3059
過@@ 3060
過ぎ 3061
過ぎる 3062
過ご@@ 3063
過ごし 3064
過ごす 3065
過去 3066
過程 3067
霞 3068
霞@@ 3069
蚊 3070
蚊@@ 3071
俄@@ 3072
我 3073
我@@ 3074
我々 3075
我が 3076
我が@@ 3077
我が家 3078
我慢 3079
牙 3080
画 3081
画@@ 3082
画像 3083
画面 3084
芽 3085
芽@@ 3086
賀 3087
賀@@ 3088
雅 3089
雅@@ 3090
餓 3091
餓@@ 3092
駕@@ 3093
介 3094
介@@ 3095
介護 3096
会 3097
会@@ 3098
会い 3099
会う 3100
会え 3101
会っ 3102
会員 3103
会議 3104
会社 3105
会場 3106
会長 3107
会話 3108
解 3109
解@@ 3110
解い 3111
解く 3112
解決 3113
解釈 3114
解消 3115
解析 3116
解説 3117
解答 3118
解明 3119
回 3120
回@@ 3121
回し 3122
回っ 3123
回り 3124
回る 3125
回帰 3126
回収 3127
回数 3128
回転 3129
回答 3130
回避 3131
回復 3132
回路 3133
壊 3134
壊@@ 3135
壊し 3136
壊れ 3137
快 3138
快@@ 3139
怪 3140
怪@@ 3141
怪我 3142
悔 3143
悔@@ 3144
懐@@ 3145
戒 3146
戒@@ 3147
改 3148
改@@ 3149
改め 3150
改革 3151
改善 3152
改良 3153
魁@@ 3154
械@@ 3155
海 3156
海@@ 3157
海外 3158
海岸 3159
海道 3160
灰 3161
灰@@ 3162
界 3163
界@@ 3164
皆 3165
皆@@ 3166
絵 3167
絵@@ 3168
芥@@ 3169
開 3170
開@@ 3171
開い 3172
開か 3173
開き 3174
開く 3175
開け 3176
開催 3177
開始 3178
開発 3179
開放 3180
階 3181
階@@ 3182
階級 3183
階層 3184
階段 3185
貝 3186
貝@@ 3187
外 3188
外@@ 3189
外し 3190
外れ 3191
外国 3192
外部 3193
外来 3194
咳 3195
咳@@ 3196
害 3197
害@@ 3198
崖 3199
慨 3200
概 3201
概@@ 3202
概念 3203
概要 3204
涯 3205
蓋 3206
蓋@@ 3207
街 3208
街@@ 3209
該 3210
該当 3211
鎧 3212
骸@@ 3213
蛙 3214
垣 3215
垣@@ 3216
柿 3217
柿@@ 3218
各 3219
各@@ 3220
各国 3221
各地 3222
拡 3223
拡@@ 3224
拡大 3225
拡張 3226
撹@@ 3227
格 3228
格@@ 3229
格好 3230
核 3231
核@@ 3232
殻 3233
獲 3234
獲@@ 3235
獲得 3236
確 3237
確@@ 3238
確か 3239
確か@@ 3240
確かめ 3241
確実 3242
確信 3243
確定 3244
確認 3245
確保 3246
確率 3247
確立 3248
穫 3249
覚 3250
覚@@ 3251
覚え 3252
覚える 3253
角 3254
角@@ 3255
角度 3256
郭 3257
閣 3258
閣@@ 3259
隔 3260
隔@@ 3261
革 3262
革@@ 3263
革命 3264
学 3265
学@@ 3266
学び 3267
学ぶ 3268
学ん 3269
学園 3270
学会 3271
学級 3272
学校 3273
学習 3274
学生 3275
学年 3276
岳 3277
楽 3278
楽@@ 3279
楽し 3280
楽し@@ 3281
楽しい 3282
楽しかっ 3283
楽しく 3284
楽しみ 3285
楽しむ 3286
楽しめる 3287
楽しん 3288
楽器 3289
額 3290
額@@ 3291
顎 3292
掛 3293
掛@@ 3294
掛かっ 3295
掛から 3296
掛かり 3297
掛かる 3298
掛け 3299
掛け@@ 3300
掛ける 3301
笠 3302
笠@@ 3303
樫 3304
梶@@ 3305
潟 3306
割 3307
割@@ 3308
割っ 3309
割り 3310
割り@@ 3311
割り当て 3312
割合 3313
喝 3314
括 3315
括@@ 3316
括弧 3317
活 3318
活@@ 3319
活性 3320
活動 3321
活躍 3322
活用 3323
渇 3324
滑 3325
滑@@ 3326
葛@@ 3327
轄 3328
鰹@@ 3329
叶@@ 3330
樺 3331
樺@@ 3332
鞄 3333
株 3334
株@@ 3335
竃 3336
蒲@@ 3337
釜 3338
釜@@ 3339
鎌@@ 3340
鎌倉 3341
噛@@ 3342
鴨 3343
茅 3344
茅@@ 3345
刈@@ 3346
瓦 3347
瓦@@ 3348
乾 3349
乾@@ 3350
乾燥 3351
冠 3352
冠@@ 3353
寒 3354
寒@@ 3355
寒い 3356
刊 3357
刊@@ 3358
勘 3359
勘@@ 3360
勧@@ 3361
勧め 3362
巻 3363
巻@@ 3364
巻い 3365
巻き@@ 3366
喚@@ 3367
堪@@ 3368
姦 3369
完 3370
完@@ 3371
完成 3372
完全 3373
完了 3374
官 3375
官@@ 3376
寛 3377
寛@@ 3378
干@@ 3379
干し 3380
幹 3381
幹@@ 3382
幹線 3383
患 3384
患@@ 3385
患者 3386
感 3387
感@@ 3388
感じ 3389
感じる 3390
感覚 3391
感激 3392
感謝 3393
感情 3394
感心 3395
感性 3396
感染 3397
感想 3398
感動 3399
慣@@ 3400
慣れ 3401
憾 3402
換 3403
換@@ 3404
敢 3405
敢@@ 3406
敢えて 3407
柑@@ 3408
棺 3409
棺@@ 3410
歓@@ 3411
汗 3412
漢 3413
漢@@ 3414
漢語 3415
漢字 3416
環 3417
環境 3418
甘 3419
甘@@ 3420
甘い 3421
監 3422
監@@ 3423
監督 3424
看@@ 3425
看護 3426
竿 3427
管 3428
管@@ 3429
管理 3430
簡 3431
簡@@ 3432
簡単 3433
緩 3434
緩@@ 3435
緩和 3436
缶 3437
缶@@ 3438
肝 3439
肝@@ 3440
艦@@ 3441
観 3442
観@@ 3443
観光 3444
観察 3445
観測 3446
観点 3447
諌@@ 3448
貫 3449
貫@@ 3450
還 3451
還@@ 3452
鑑 3453
鑑@@ 3454
間 3455
間@@ 3456
間に@@ 3457
間違@@ 3458
間違い 3459
間違え 3460
間違っ 3461
間隔 3462
間接 3463
間投 3464
閑 3465
関 3466
関@@ 3467
関し 3468
関する 3469
関係 3470
関心 3471
関数 3472
関西 3473
関節 3474
関東 3475
関与 3476
関連 3477
陥 3478
陥@@ 3479
韓 3480
韓国 3481
館 3482
館@@ 3483
丸 3484
丸@@ 3485
含 3486
含@@ 3487
含ま 3488
含む 3489
含め 3490
含ん 3491
含意 3492
岸 3493
癌 3494
眼 3495
眼@@ 3496
眼鏡 3497
岩 3498
岩@@ 3499
雁 3500
頑 3501
頑@@ 3502
頑張@@ 3503
頑張っ 3504
顔 3505
顔@@ 3506
願 3507
願@@ 3508
願い 3509
企 3510
企@@ 3511
企画 3512
企業 3513
伎 3514
伎@@ 3515
危@@ 3516
危ない 3517
危機 3518
危険 3519
喜 3520
喜@@ 3521
喜び 3522
喜ん 3523
器 3524
器@@ 3525
器官 3526
基 3527
基@@ 3528
基づ@@ 3529
基づい 3530
基づき 3531
基づく 3532
基準 3533
基礎 3534
基底 3535
基盤 3536
基本 3537
奇 3538
奇@@ 3539
奇麗 3540
嬉@@ 3541
嬉しい 3542
嬉しかっ 3543
嬉しく 3544
寄@@ 3545
寄せ 3546
寄っ 3547
寄り 3548
寄与 3549
岐 3550
岐@@ 3551
希 3552
希@@ 3553
希望 3554
幾 3555
幾@@ 3556
幾ら 3557
忌@@ 3558
揮 3559
机 3560
机@@ 3561
旗 3562
旗@@ 3563
既 3564
既@@ 3565
既に 3566
既存 3567
既知 3568
期 3569
期@@ 3570
期間 3571
期待 3572
棄 3573
棄@@ 3574
機 3575
機@@ 3576
機会 3577
機械 3578
機関 3579
機器 3580
機構 3581
機能 3582
帰 3583
帰@@ 3584
帰っ 3585
帰り 3586
帰る 3587
帰国 3588
毅@@ 3589
気 3590
気@@ 3591
気候 3592
気持ち 3593
気付い 3594
気付か 3595
気分 3596
汽@@ 3597
畿 3598
畿@@ 3599
祈@@ 3600
季 3601
季@@ 3602
季節 3603
稀 3604
紀 3605
紀@@ 3606
規 3607
規@@ 3608
規制 3609
規則 3610
規定 3611
規範 3612
規模 3613
記 3614
記@@ 3615
記憶 3616
記号 3617
記事 3618
記者 3619
記述 3620
記念 3621
記録 3622
貴 3623
貴@@ 3624
貴重 3625
起 3626
起@@ 3627
起き 3628
起きる 3629
起こ@@ 3630
起こさ 3631
起こし 3632
起こす 3633
起こっ 3634
起こり 3635
起こる 3636
軌 3637
軌@@ 3638
軌跡 3639
輝@@ 3640
飢@@ 3641
鬼 3642
鬼@@ 3643
亀 3644
亀@@ 3645
偽 3646
偽@@ 3647
儀 3648
儀@@ 3649
宜 3650
宜@@ 3651
戯 3652
戯@@ 3653
技 3654
技@@ 3655
技術 3656
擬 3657
擬@@ 3658
欺 3659
犠@@ 3660
疑 3661
疑@@ 3662
疑似 3663
疑問 3664
祇@@ 3665
義 3666
義@@ 3667
議 3668
議@@ 3669
議論 3670
掬@@ 3671
菊 3672
菊@@ 3673
鞠 3674
吉 3675
吉@@ 3676
吃@@ 3677
喫煙 3678
喫茶 3679
桔@@ 3680
橘 3681
詰@@ 3682
詰まっ 3683
詰め 3684
杵 3685
杵@@ 3686
却 3687
却@@ 3688
却って 3689
客 3690
客@@ 3691
客観 3692
脚 3693
脚@@ 3694
虐 3695
虐@@ 3696
逆 3697
逆@@ 3698
逆転 3699
丘 3700
久 3701
久@@ 3702
休 3703
休@@ 3704
休み 3705
休ん 3706
休止 3707
及 3708
及@@ 3709
及ぼ@@ 3710
及ぼす 3711
吸 3712
吸@@ 3713
吸う 3714
吸っ 3715
吸収 3716
宮 3717
宮@@ 3718
弓 3719
弓@@ 3720
急 3721
急@@ 3722
急激 3723
救@@ 3724
朽 3725
求 3726
求@@ 3727
求め 3728
求める 3729
汲@@ 3730
泣@@ 3731
泣い 3732
泣き 3733
泣く 3734
灸 3735
球 3736
球@@ 3737
究 3738
究@@ 3739
窮@@ 3740
級 3741
級@@ 3742
糾@@ 3743
給 3744
給@@ 3745
給料 3746
旧 3747
旧@@ 3748
牛 3749
牛@@ 3750
牛乳 3751
去 3752
去@@ 3753
去年 3754
居 3755
居@@ 3756
巨@@ 3757
巨人 3758
拒@@ 3759
拠 3760
拠@@ 3761
挙 3762
挙@@ 3763
挙げ 3764
挙げる 3765
虚 3766
虚@@ 3767
許@@ 3768
許さ 3769
許容 3770
距 3771
距離 3772
鋸 3773
漁 3774
漁@@ 3775
魚 3776
魚@@ 3777
亨 3778
享@@ 3779
京 3780
京@@ 3781
京都 3782
供 3783
供@@ 3784
競@@ 3785
競技 3786
競争 3787
共 3788
共@@ 3789
共起 3790
共通 3791
共同 3792
共有 3793
凶@@ 3794
協 3795
協@@ 3796
協調 3797
協力 3798
卿 3799
叫@@ 3800
境 3801
境@@ 3802
境界 3803
峡 3804
強 3805
強@@ 3806
強い 3807
強く 3808
強化 3809
強制 3810
強勢 3811
強調 3812
怯 3813
怯@@ 3814
恐@@ 3815
恐らく 3816
恐れ 3817
恐ろ@@ 3818
恐怖 3819
恭@@ 3820
挟@@ 3821
挟ん 3822
教 3823
教@@ 3824
教え 3825
教える 3826
教育 3827
教員 3828
教科 3829
教会 3830
教材 3831
教師 3832
教室 3833
教授 3834
橋 3835
橋@@ 3836
橋本 3837
況 3838
狂 3839
狂@@ 3840
狭 3841
狭@@ 3842
狭い 3843
狭く 3844
狭め 3845
矯@@ 3846
胸 3847
胸@@ 3848
脅@@ 3849
興 3850
興@@ 3851
興味 3852
郷 3853
郷@@ 3854
鏡 3855
響 3856
響@@ 3857
驚@@ 3858
驚い 3859
驚き 3860
仰 3861
仰@@ 3862
凝 3863
凝@@ 3864
暁 3865
業 3866
業@@ 3867
業界 3868
業者 3869
業務 3870
局 3871
局@@ 3872
局所 3873
局面 3874
曲 3875
曲@@ 3876
曲線 3877
極 3878
極@@ 3879
極めて 3880
極端 3881
玉 3882
玉@@ 3883
玉ネギ 3884
桐 3885
桐@@ 3886
勤 3887
勤@@ 3888
勤め 3889
勤務 3890
均@@ 3891
巾 3892
錦@@ 3893
琴 3894
琴@@ 3895
禁@@ 3896
禁止 3897
禽 3898
筋 3899
筋@@ 3900
筋肉 3901
緊@@ 3902
緊張 3903
菌 3904
襟 3905
謹@@ 3906
近 3907
近@@ 3908
近い 3909
近く 3910
近畿 3911
近似 3912
近所 3913
近代 3914
近年 3915
近付い 3916
近辺 3917
近傍 3918
金 3919
金@@ 3920
金額 3921
金融 3922
吟@@ 3923
銀 3924
銀行 3925
銀座 3926
九 3927
九@@ 3928
九州 3929
九十 3930
九百 3931
句 3932
句@@ 3933
区 3934
区@@ 3935
区間 3936
区切り 3937
区分 3938
区別 3939
狗 3940
玖@@ 3941
矩 3942
矩@@ 3943
苦 3944
苦@@ 3945
苦しい 3946
苦手 3947
苦労 3948
躯 3949
駆 3950
駆@@ 3951
駆け@@ 3952
駒 3953
駒@@ 3954
具 3955
具@@ 3956
具合 3957
具体 3958
愚@@ 3959
喰 3960
空 3961
空@@ 3962
空い 3963
空間 3964
空気 3965
偶 3966
偶@@ 3967
偶然 3968
遇 3969
隅 3970
隅@@ 3971
串 3972
串@@ 3973
櫛 3974
櫛@@ 3975
釧@@ 3976
屑 3977
屈 3978
屈@@ 3979
掘 3980
掘@@ 3981
窟 3982
靴 3983
靴@@ 3984
窪 3985
窪@@ 3986
熊 3987
熊@@ 3988
隈 3989
栗 3990
栗@@ 3991
繰@@ 3992
繰り返@@ 3993
繰り返し 3994
繰り返す 3995
桑 3996
桑@@ 3997
鍬 3998
君 3999
君@@ 4000
薫 4001
薫@@ 4002
訓 4003
訓@@ 4004
訓練 4005
群 4006
群@@ 4007
群馬 4008
軍 4009
軍@@ 4010
郡 4011
郡@@ 4012
袈@@ 4013
係 4014
係@@ 4015
係り@@ 4016
係り受け 4017
係る 4018
係数 4019
傾 4020
傾@@ 4021
傾き 4022
傾向 4023
刑 4024
刑@@ 4025
兄 4026
兄@@ 4027
兄弟 4028
啓@@ 4029
圭@@ 4030
型 4031
型@@ 4032
契@@ 4033
契約 4034
形 4035
形@@ 4036
形式 4037
形状 4038
形成 4039
形態 4040
形容 4041
径 4042
恵 4043
恵@@ 4044
恵まれ 4045
慶 4046
慶@@ 4047
憩 4048
掲 4049
掲@@ 4050
掲げ 4051
携 4052
携@@ 4053
携帯 4054
敬 4055
敬@@ 4056
敬語 4057
景 4058
景@@ 4059
景気 4060
景色 4061
桂 4062
桂@@ 4063
畦 4064
稽 4065
稽古 4066
系 4067
系@@ 4068
系統 4069
系列 4070
経 4071
経@@ 4072
経緯 4073
経営 4074
経過 4075
経験 4076
経済 4077
経塚 4078
経筒 4079
経路 4080
継 4081
継@@ 4082
継い 4083
継続 4084
繋@@ 4085
繋い 4086
繋がっ 4087
繋がり 4088
繋がる 4089
罫 4090
罫@@ 4091
茎 4092
茎@@ 4093
蛍 4094
蛍@@ 4095
計 4096
計@@ 4097
計画 4098
計算 4099
計測 4100
計量 4101
詣 4102
詣@@ 4103
警 4104
警@@ 4105
警察 4106
警報 4107
軽 4108
軽@@ 4109
軽い 4110
軽く 4111
頚@@ 4112
芸 4113
芸@@ 4114
芸術 4115
芸能 4116
迎 4117
迎@@ 4118
迎え 4119
鯨 4120
鯨@@ 4121
劇 4122
劇@@ 4123
劇場 4124
劇団 4125
撃 4126
撃@@ 4127
激 4128
激@@ 4129
激しい 4130
隙 4131
隙@@ 4132
桁 4133
桁@@ 4134
傑@@ 4135
欠 4136
欠@@ 4137
欠点 4138
決 4139
決@@ 4140
決して 4141
決まっ 4142
決まり 4143
決め 4144
決める 4145
決定 4146
潔 4147
潔@@ 4148
穴 4149
穴@@ 4150
結 4151
結@@ 4152
結び 4153
結び@@ 4154
結果 4155
結局 4156
結構 4157
結合 4158
結婚 4159
結束 4160
結論 4161
血 4162
血@@ 4163
血液 4164
訣 4165
月 4166
月@@ 4167
月曜 4168
件 4169
件@@ 4170
倹@@ 4171
健 4172
健@@ 4173
健康 4174
兼 4175
兼@@ 4176
券 4177
券@@ 4178
剣 4179
剣@@ 4180
喧@@ 4181
喧嘩 4182
圏 4183
堅 4184
堅@@ 4185
嫌 4186
嫌@@ 4187
嫌い 4188
建 4189
建@@ 4190
建っ 4191
建て 4192
建設 4193
建築 4194
建物 4195
憲 4196
憲@@ 4197
懸@@ 4198
懸命 4199
捲 4200
検 4201
検@@ 4202
検査 4203
検索 4204
検出 4205
検証 4206
検定 4207
検討 4208
権 4209
権@@ 4210
権利 4211
牽@@ 4212
犬 4213
犬@@ 4214
献@@ 4215
研 4216
研@@ 4217
研究 4218
研修 4219
絹 4220
絹@@ 4221
県 4222
県@@ 4223
肩 4224
肩@@ 4225
見 4226
見@@ 4227
見え 4228
見える 4229
見せ 4230
見せる 4231
見つ@@ 4232
見つかっ 4233
見つけ 4234
見つける 4235
見なし 4236
見る 4237
見れ 4238
見学 4239
見掛け 4240
見事 4241
見出し 4242
見出だ@@ 4243
見直し 4244
謙@@ 4245
謙譲 4246
賢 4247
賢@@ 4248
軒 4249
軒@@ 4250
遣 4251
遣@@ 4252
遣い 4253
鍵 4254
鍵@@ 4255
険@@ 4256
顕@@ 4257
顕著 4258
験 4259
元 4260
元@@ 4261
元々 4262
元気 4263
原 4264
原@@ 4265
原因 4266
原稿 4267
原子 4268
原則 4269
原文 4270
原理 4271
厳 4272
厳@@ 4273
厳しい 4274
厳しく 4275
厳密 4276
幻 4277
幻@@ 4278
弦 4279
減 4280
減@@ 4281
減っ 4282
減らし 4283
減少 4284
源 4285
源@@ 4286
玄 4287
玄@@ 4288
玄関 4289
現 4290
現@@ 4291
現われ 4292
現われる 4293
現在 4294
現実 4295
現象 4296
現場 4297
現状 4298
現代 4299
現地 4300
言 4301
言@@ 4302
言い 4303
言い@@ 4304
言い替え 4305
言い直し 4306
言い淀@@ 4307
言う 4308
言え 4309
言える 4310
言っ 4311
言わ 4312
言わば 4313
言及 4314
言語 4315
言葉 4316
限 4317
限@@ 4318
限っ 4319
限ら 4320
限り 4321
限界 4322
限定 4323
個 4324
個@@ 4325
個々 4326
個人 4327
個性 4328
個体 4329
個別 4330
古 4331
古@@ 4332
古い 4333
古く 4334
古事 4335
古代 4336
古典 4337
呼 4338
呼@@ 4339
呼ば 4340
呼び 4341
呼び@@ 4342
呼ぶ 4343
呼ん 4344
呼吸 4345
固 4346
固@@ 4347
固まり 4348
固定 4349
固有 4350
姑@@ 4351
孤 4352
孤@@ 4353
己 4354
己@@ 4355
庫 4356
弧 4357
戸 4358
戸@@ 4359
故 4360
故@@ 4361
枯@@ 4362
湖 4363
糊 4364
糊@@ 4365
股 4366
胡 4367
胡@@ 4368
虎 4369
虎@@ 4370
誇@@ 4371
誇り 4372
跨@@ 4373
雇 4374
雇@@ 4375
雇用 4376
顧 4377
顧@@ 4378
鼓 4379
鼓@@ 4380
五 4381
五@@ 4382
五十 4383
五千 4384
五百 4385
五六 4386
互@@ 4387
互い 4388
伍@@ 4389
午 4390
午後 4391
午前 4392
呉 4393
呉@@ 4394
吾 4395
娯@@ 4396
後 4397
後@@ 4398
後ろ 4399
後ろ@@ 4400
後期 4401
後続 4402
後程 4403
後輩 4404
後半 4405
御 4406
御@@ 4407
御飯 4408
御覧 4409
悟 4410
悟@@ 4411
碁 4412
碁@@ 4413
語 4414
語@@ 4415
語り 4416
語幹 4417
語句 4418
語形 4419
語順 4420
語頭 4421
語尾 4422
語末 4423
語彙 4424
誤 4425
誤@@ 4426
誤っ 4427
誤り 4428
誤り@@ 4429
誤り率 4430
誤解 4431
誤差 4432
護 4433
乞@@ 4434
交 4435
交@@ 4436
交換 4437
交互 4438
交差 4439
交渉 4440
交代 4441
交通 4442
交流 4443
候 4444
候@@ 4445
候補 4446
光 4447
光@@ 4448
光景 4449
公 4450
公@@ 4451
公園 4452
公演 4453
公開 4454
公共 4455
功 4456
功@@ 4457
効 4458
効@@ 4459
効い 4460
効果 4461
効用 4462
効率 4463
勾@@ 4464
厚 4465
厚@@ 4466
厚生 4467
口 4468
口@@ 4469
口蓋 4470
口語 4471
口調 4472
向 4473
向@@ 4474
向い 4475
向かい 4476
向かう 4477
向かっ 4478
向き 4479
向け 4480
向こう 4481
向上 4482
后 4483
喉 4484
喉@@ 4485
喉頭 4486
垢 4487
好 4488
好@@ 4489
好き 4490
好み 4491
孔 4492
孔@@ 4493
孝 4494
孝@@ 4495
宏 4496
宏@@ 4497
工 4498
工@@ 4499
工学 4500
工業 4501
工事 4502
工場 4503
工夫 4504
巧 4505
巧@@ 4506
巷 4507
幸 4508
幸@@ 4509
幸い 4510
幸せ 4511
広 4512
広@@ 4513
広い 4514
広がっ 4515
広がり 4516
広く 4517
広げ 4518
広告 4519
広島 4520
康 4521
康@@ 4522
弘 4523
弘@@ 4524
恒 4525
恒@@ 4526
慌 4527
慌@@ 4528
抗 4529
抗@@ 4530
抗議 4531
拘 4532
拘@@ 4533
控え 4534
攻 4535
攻@@ 4536
攻撃 4537
昂 4538
更 4539
更@@ 4540
更に 4541
更新 4542
杭 4543
校 4544
校@@ 4545
梗@@ 4546
構 4547
構@@ 4548
構わ 4549
構成 4550
構造 4551
構築 4552
構文 4553
江 4554
江@@ 4555
江戸 4556
洪@@ 4557
浩 4558
港 4559
溝 4560
溝@@ 4561
甲 4562
甲@@ 4563
甲斐 4564
皇 4565
皇@@ 4566
硬 4567
硬@@ 4568
稿 4569
紅 4570
紅@@ 4571
紅茶 4572
紘 4573
絞@@ 4574
絞っ 4575
絞り@@ 4576
絞り込み 4577
綱 4578
綱@@ 4579
耕 4580
耕@@ 4581
考 4582
考@@ 4583
考え 4584
考え@@ 4585
考える 4586
考えれ 4587
考察 4588
考慮 4589
肯定 4590
肱 4591
腔 4592
膏 4593
航 4594
航@@ 4595
航空 4596
荒 4597
荒@@ 4598
行 4599
行@@ 4600
行か 4601
行き 4602
行き@@ 4603
行く 4604
行け 4605
行ける 4606
行こ 4607
行っ 4608
行な@@ 4609
行ない 4610
行なう 4611
行なっ 4612
行なわ 4613
行為 4614
行事 4615
行政 4616
行動 4617
行列 4618
衡 4619
講 4620
講@@ 4621
講演 4622
講義 4623
講師 4624
貢献 4625
購 4626
購@@ 4627
購入 4628
郊 4629
郊@@ 4630
鉱 4631
鋼 4632
閤 4633
降 4634
降@@ 4635
降っ 4636
降り 4637
項 4638
項@@ 4639
項目 4640
香 4641
香@@ 4642
香り 4643
香港 4644
香川 4645
高 4646
高@@ 4647
高い 4648
高かっ 4649
高く 4650
高める 4651
高級 4652
高校 4653
高速 4654
高度 4655
高等 4656
高齢 4657
剛 4658
剛@@ 4659
劫 4660
号 4661
号@@ 4662
合 4663
合@@ 4664
合い 4665
合う 4666
合っ 4667
合わ 4668
合わ@@ 4669
合わせ 4670
合わせる 4671
合意 4672
合格 4673
合計 4674
合宿 4675
合成 4676
合理 4677
豪 4678
豪@@ 4679
轟@@ 4680
克 4681
克@@ 4682
刻 4683
刻@@ 4684
告 4685
告@@ 4686
国 4687
国@@ 4688
国家 4689
国会 4690
国語 4691
国際 4692
国内 4693
国民 4694
国立 4695
穀@@ 4696
酷 4697
酷@@ 4698
酷い 4699
酷く 4700
黒 4701
黒@@ 4702
黒い 4703
黒人 4704
獄 4705
腰 4706
腰@@ 4707
骨 4708
骨@@ 4709
込@@ 4710
込ま 4711
込み 4712
込む 4713
込め 4714
込ん 4715
頃 4716
今 4717
今@@ 4718
今回 4719
今後 4720
今度 4721
今日 4722
今年 4723
困 4724
困@@ 4725
困っ 4726
困り 4727
困る 4728
困難 4729
婚 4730
婚@@ 4731
恨@@ 4732
懇 4733
懇@@ 4734
昏 4735
昏@@ 4736
昆 4737
昆@@ 4738
根 4739
根@@ 4740
根拠 4741
根本 4742
混 4743
混@@ 4744
混ぜ 4745
混ぜ@@ 4746
混合 4747
痕@@ 4748
魂 4749
些@@ 4750
佐 4751
佐@@ 4752
佐久@@ 4753
佐久間 4754
佐倉 4755
唆@@ 4756
左 4757
左@@ 4758
左右 4759
左側 4760
差 4761
差@@ 4762
差し 4763
差し@@ 4764
差異 4765
差分 4766
差別 4767
査 4768
査@@ 4769
沙@@ 4770
砂 4771
砂@@ 4772
砂糖 4773
詐@@ 4774
鎖 4775
鎖@@ 4776
裟 4777
座 4778
座@@ 4779
座っ 4780
座標 4781
挫 4782
挫@@ 4783
債 4784
債@@ 4785
催 4786
催@@ 4787
再 4788
再@@ 4789
再び 4790
再現 4791
再生 4792
最 4793
最@@ 4794
最も 4795
最近 4796
最後 4797
最高 4798
最終 4799
最初 4800
最小 4801
最大 4802
最中 4803
最低 4804
最適 4805
最尤 4806
哉 4807
塞 4808
塞@@ 4809
妻 4810
妻@@ 4811
宰 4812
宰@@ 4813
彩 4814
彩@@ 4815
才 4816
才@@ 4817
採 4818
採@@ 4819
採用 4820
採録 4821
栽培 4822
歳 4823
歳@@ 4824
済 4825
済@@ 4826
済み 4827
済む 4828
済ん 4829
災 4830
災@@ 4831
采@@ 4832
砕@@ 4833
祭 4834
祭@@ 4835
祭り 4836
祭壇 4837
斎 4838
斎@@ 4839
細 4840
細@@ 4841
細い 4842
細かい 4843
細かく 4844
細胞 4845
菜 4846
菜@@ 4847
裁 4848
裁@@ 4849
裁判 4850
載 4851
載@@ 4852
載せ 4853
載っ 4854
際 4855
際@@ 4856
剤 4857
在 4858
在@@ 4859
材 4860
材@@ 4861
材料 4862
罪 4863
罪@@ 4864
財 4865
財@@ 4866
坂 4867
坂@@ 4868
阪 4869
阪@@ 4870
肴 4871
咲@@ 4872
崎 4873
埼玉 4874
鷺@@ 4875
作 4876
作@@ 4877
作っ 4878
作ら 4879
作り 4880
作り@@ 4881
作る 4882
作れ 4883
作れる 4884
作ろ 4885
作家 4886
作業 4887
作成 4888
作品 4889
作文 4890
作用 4891
削 4892
削@@ 4893
削っ 4894
削減 4895
削除 4896
搾@@ 4897
昨 4898
昨@@ 4899
昨日 4900
昨年 4901
朔@@ 4902
柵 4903
策 4904
策@@ 4905
索 4906
索@@ 4907
錯 4908
錯@@ 4909
桜 4910
桜@@ 4911
笹 4912
笹@@ 4913
冊 4914
冊@@ 4915
刷@@ 4916
察 4917
察@@ 4918
撮 4919
撮@@ 4920
撮っ 4921
撮影 4922
擦 4923
擦@@ 4924
札 4925
札@@ 4926
殺 4927
殺@@ 4928
殺し 4929
薩 4930
雑 4931
雑@@ 4932
雑音 4933
雑誌 4934
捌@@ 4935
鮫 4936
皿 4937
晒@@ 4938
三 4939
三@@ 4940
三角 4941
三四 4942
三十 4943
三千 4944
三百 4945
傘 4946
参 4947
参@@ 4948
参り 4949
参加 4950
参考 4951
参照 4952
山 4953
山@@ 4954
山口 4955
惨 4956
惨@@ 4957
撒@@ 4958
散 4959
散@@ 4960
散歩 4961
産 4962
産@@ 4963
産業 4964
算 4965
算@@ 4966
算出 4967
纂 4968
讃@@ 4969
賛 4970
賛@@ 4971
酸 4972
酸@@ 4973
酸素 4974
斬@@ 4975
暫@@ 4976
暫く 4977
残 4978
残@@ 4979
残さ 4980
残し 4981
残す 4982
残っ 4983
残り 4984
残る 4985
残響 4986
残念 4987
仕 4988
仕@@ 4989
仕事 4990
仕組み 4991
仕方 4992
仕様 4993
伺@@ 4994
使 4995
使@@ 4996
使い 4997
使い@@ 4998
使い分け 4999
使う 5000
使え 5001
使える 5002
使っ 5003
使わ 5004
使用 5005
刺 5006
刺@@ 5007
刺激 5008
司 5009
司@@ 5010
司会 5011
史 5012
史@@ 5013
四 5014
四@@ 5015
四角 5016
四五 5017
四十 5018
四千 5019
四百 5020
士 5021
士@@ 5022
始 5023
始@@ 5024
始まっ 5025
始まり 5026
始まる 5027
始め 5028
始める 5029
姉 5030
姉@@ 5031
姿 5032
姿勢 5033
子 5034
子@@ 5035
子育て 5036
子音 5037
子供 5038
市 5039
市@@ 5040
市場 5041
市民 5042
師 5043
師@@ 5044
志 5045
志@@ 5046
志向 5047
思 5048
思@@ 5049
思い 5050
思い@@ 5051
思い出 5052
思い出し 5053
思い出す 5054
思い切り 5055
思う 5056
思え 5057
思える 5058
思っ 5059
思わ 5060
思考 5061
思想 5062
指 5063
指@@ 5064
指し 5065
指す 5066
指示 5067
指数 5068
指定 5069
指摘 5070
指導 5071
指標 5072
指令 5073
支 5074
支@@ 5075
支え 5076
支援 5077
支持 5078
支配 5079
施@@ 5080
施設 5081
旨 5082
枝 5083
枝@@ 5084
止 5085
止@@ 5086
止まっ 5087
止め 5088
死 5089
死@@ 5090
死ぬ 5091
死ん 5092
氏 5093
氏@@ 5094
私 5095
私@@ 5096
糸 5097
糸@@ 5098
紙 5099
紙@@ 5100
紫 5101
紫@@ 5102
肢 5103
脂 5104
脂@@ 5105
脂肪 5106
至@@ 5107
至っ 5108
至る 5109
視 5110
視@@ 5111
視覚 5112
視聴覚 5113
視点 5114
視野 5115
詞 5116
詞@@ 5117
詩 5118
詩@@ 5119
試 5120
試@@ 5121
試し 5122
試み 5123
試験 5124
試行 5125
試合 5126
誌 5127
誌@@ 5128
諮@@ 5129
資 5130
資@@ 5131
資格 5132
資金 5133
資源 5134
資本 5135
資料 5136
賜@@ 5137
雌 5138
雌@@ 5139
飼 5140
飼@@ 5141
飼い 5142
飼う 5143
飼っ 5144
歯 5145
歯@@ 5146
事 5147
事@@ 5148
事業 5149
事件 5150
事故 5151
事後 5152
事項 5153
事実 5154
事象 5155
事情 5156
事前 5157
事態 5158
事典 5159
事柄 5160
事務 5161
事例 5162
似 5163
似@@ 5164
侍 5165
侍@@ 5166
児 5167
児@@ 5168
児島 5169
児童 5170
字 5171
字@@ 5172
字余り 5173
寺 5174
寺@@ 5175
慈 5176
慈@@ 5177
持 5178
持@@ 5179
持た 5180
持ち 5181
持ち@@ 5182
持っ 5183
持つ 5184
持続 5185
時 5186
時@@ 5187
時々 5188
時間 5189
時期 5190
時計 5191
時刻 5192
時代 5193
時点 5194
次 5195
次@@ 5196
次々 5197
次元 5198
次第 5199
次郎 5200
滋 5201
滋@@ 5202
治 5203
治@@ 5204
治療 5205
爾 5206
磁 5207
磁@@ 5208
示 5209
示@@ 5210
示さ 5211
示し 5212
示す 5213
示唆 5214
耳 5215
耳@@ 5216
自 5217
自@@ 5218
自ら 5219
自覚 5220
自己 5221
自治 5222
自信 5223
自身 5224
自然 5225
自体 5226
自宅 5227
自転 5228
自動 5229
自発 5230
自分 5231
自慢 5232
自由 5233
自立 5234
蒔@@ 5235
辞 5236
辞@@ 5237
辞め 5238
辞書 5239
辞典 5240
鹿 5241
鹿@@ 5242
鹿児島 5243
式 5244
式@@ 5245
識 5246
識@@ 5247
識別 5248
竺 5249
軸 5250
宍@@ 5251
七 5252
七@@ 5253
七十 5254
七八 5255
七百 5256
叱@@ 5257
執@@ 5258
失 5259
失@@ 5260
失わ 5261
失敗 5262
失礼 5263
室 5264
室@@ 5265
悉 5266
悉@@ 5267
湿@@ 5268
漆 5269
漆@@ 5270
疾@@ 5271
質 5272
質@@ 5273
質問 5274
実 5275
実@@ 5276
実家 5277
実感 5278
実験 5279
実現 5280
実行 5281
実際 5282
実施 5283
実習 5284
実践 5285
実装 5286
実態 5287
実用 5288
実例 5289
篠@@ 5290
偲@@ 5291
柴@@ 5292
芝 5293
芝@@ 5294
芝居 5295
縞 5296
舎 5297
舎@@ 5298
写 5299
写@@ 5300
写真 5301
射 5302
射@@ 5303
捨 5304
捨@@ 5305
捨て 5306
赦 5307
斜 5308
斜@@ 5309
煮 5310
煮@@ 5311
社 5312
社@@ 5313
社員 5314
社会 5315
社長 5316
者 5317
者@@ 5318
謝 5319
謝@@ 5320
車 5321
車@@ 5322
車内 5323
遮@@ 5324
蛇 5325
蛇@@ 5326
邪@@ 5327
邪魔 5328
借 5329
借@@ 5330
借り 5331
尺 5332
尺@@ 5333
尺度 5334
釈 5335
釈@@ 5336
錫 5337
若 5338
若@@ 5339
若い 5340
若干 5341
若者 5342
寂 5343
寂@@ 5344
寂しい 5345
弱 5346
弱@@ 5347
弱い 5348
惹@@ 5349
主 5350
主@@ 5351
主な 5352
主に 5353
主観 5354
主義 5355
主語 5356
主人 5357
主体 5358
主題 5359
主張 5360
主婦 5361
主要 5362
主流 5363
取 5364
取@@ 5365
取っ 5366
取ら 5367
取り 5368
取り@@ 5369
取り引き 5370
取り敢えず 5371
取り出し 5372
取り出す 5373
取り上げ 5374
取り入れ 5375
取り立て 5376
取る 5377
取れ 5378
取れる 5379
取得 5380
守 5381
守@@ 5382
守っ 5383
守り 5384
守る 5385
手 5386
手@@ 5387
手掛かり 5388
手間 5389
手元 5390
手作り 5391
手紙 5392
手術 5393
手順 5394
手前 5395
手続き 5396
手段 5397
手伝@@ 5398
手伝い 5399
手伝っ 5400
手法 5401
手話 5402
朱 5403
朱@@ 5404
殊 5405
殊@@ 5406
狩@@ 5407
珠 5408
珠@@ 5409
種 5410
種@@ 5411
種類 5412
腫 5413
腫@@ 5414
趣 5415
趣@@ 5416
趣味 5417
酒 5418
酒@@ 5419
首 5420
首@@ 5421
首相 5422
首都 5423
儒 5424
儒@@ 5425
受 5426
受@@ 5427
受け 5428
受け@@ 5429
受ける 5430
受け入れ 5431
受け付け 5432
受験 5433
受理 5434
呪@@ 5435
寿 5436
寿@@ 5437
寿司 5438
寿命 5439
授 5440
授@@ 5441
授業 5442
樹 5443
樹@@ 5444
綬 5445
需@@ 5446
囚@@ 5447
収 5448
収@@ 5449
収集 5450
収束 5451
収入 5452
収録 5453
周 5454
周@@ 5455
周り 5456
周囲 5457
周期 5458
周波 5459
周辺 5460
宗 5461
宗@@ 5462
宗教 5463
就 5464
就@@ 5465
就職 5466
州 5467
修 5468
修@@ 5469
修飾 5470
修正 5471
愁 5472
愁@@ 5473
拾 5474
拾@@ 5475
拾っ 5476
洲 5477
洲@@ 5478
秀 5479
秀@@ 5480
秋 5481
秋@@ 5482
終 5483
終@@ 5484
終え 5485
終わ@@ 5486
終わっ 5487
終わら 5488
終わり 5489
終わる 5490
終端 5491
終了 5492
習 5493
習@@ 5494
習い 5495
習っ 5496
習慣 5497
習得 5498
臭 5499
臭@@ 5500
舟 5501
衆 5502
衆@@ 5503
襲 5504
襲@@ 5505
讐 5506
蹴 5507
蹴@@ 5508
週 5509
週@@ 5510
週間 5511
酋@@ 5512
酬 5513
集 5514
集@@ 5515
集まっ 5516
集まり 5517
集まる 5518
集め 5519
集計 5520
集合 5521
集団 5522
集中 5523
醜 5524
醜@@ 5525
住 5526
住@@ 5527
住まい 5528
住み 5529
住む 5530
住ん 5531
住所 5532
住宅 5533
住民 5534
充 5535
充@@ 5536
充実 5537
十 5538
十@@ 5539
十分 5540
従 5541
従@@ 5542
従っ 5543
従属 5544
従来 5545
戎 5546
柔 5547
柔@@ 5548
汁 5549
汁@@ 5550
渋 5551
渋@@ 5552
渋谷 5553
縦 5554
縦@@ 5555
縦軸 5556
重 5557
重@@ 5558
重い 5559
重なっ 5560
重なり 5561
重ね 5562
重み 5563
重み@@ 5564
重み付け 5565
重視 5566
重複 5567
重要 5568
銃 5569
銃@@ 5570
宿 5571
宿@@ 5572
祝@@ 5573
縮 5574
縮@@ 5575
粛 5576
塾 5577
熟 5578
熟@@ 5579
出 5580
出@@ 5581
出さ 5582
出し 5583
出す 5584
出せ 5585
出せる 5586
出だ@@ 5587
出る 5588
出雲 5589
出会い 5590
出会っ 5591
出掛け 5592
出掛ける 5593
出現 5594
出産 5595
出場 5596
出身 5597
出発 5598
出版 5599
出来@@ 5600
出来事 5601
出来上がっ 5602
出来上がり 5603
出力 5604
術 5605
術@@ 5606
述 5607
述@@ 5608
述べ 5609
述べる 5610
述語 5611
俊 5612
俊@@ 5613
峻 5614
峻@@ 5615
春 5616
春@@ 5617
瞬@@ 5618
瞬間 5619
駿@@ 5620
循@@ 5621
旬 5622
殉@@ 5623
淳@@ 5624
準 5625
準@@ 5626
準備 5627
潤 5628
潤@@ 5629
盾 5630
純@@ 5631
純音 5632
純粋 5633
巡@@ 5634
醇@@ 5635
順 5636
順@@ 5637
順位 5638
順序 5639
順番 5640
処 5641
処@@ 5642
処理 5643
初 5644
初@@ 5645
初め 5646
初めて 5647
初期 5648
初心 5649
所 5650
所@@ 5651
所属 5652
所有 5653
暑 5654
暑@@ 5655
暑い 5656
曙 5657
庶@@ 5658
緒 5659
緒@@ 5660
署 5661
署@@ 5662
書 5663
書@@ 5664
書い 5665
書か 5666
書き 5667
書き@@ 5668
書き起こし 5669
書き言葉 5670
書く 5671
書け 5672
諸 5673
諸@@ 5674
助 5675
助@@ 5676
助け 5677
助詞 5678
助数 5679
叙 5680
叙@@ 5681
女 5682
女@@ 5683
女の子 5684
女子 5685
女性 5686
女房 5687
序 5688
序@@ 5689
徐々 5690
除 5691
除@@ 5692
除い 5693
除去 5694
傷 5695
傷@@ 5696
償 5697
勝 5698
勝@@ 5699
勝っ 5700
勝手 5701
匠 5702
升@@ 5703
召@@ 5704
商 5705
商@@ 5706
商店 5707
商売 5708
商品 5709
唱 5710
唱@@ 5711
嘗@@ 5712
奨 5713
奨@@ 5714
妾 5715
将 5716
将@@ 5717
将棋 5718
将来 5719
小 5720
小@@ 5721
小さ@@ 5722
小さい 5723
小さく 5724
小さな 5725
小屋 5726
小学 5727
小説 5728
少 5729
少@@ 5730
少々 5731
少し 5732
少ない 5733
少なかっ 5734
少なく 5735
少数 5736
少年 5737
尚 5738
尚@@ 5739
庄 5740
庄@@ 5741
床 5742
床@@ 5743
彰 5744
彰@@ 5745
承 5746
承@@ 5747
抄 5748
抄@@ 5749
招@@ 5750
掌 5751
掌@@ 5752
昇 5753
昇@@ 5754
昌 5755
昌@@ 5756
昭 5757
昭和 5758
晶 5759
晶@@ 5760
松 5761
松@@ 5762
松下 5763
梢 5764
沼 5765
沼@@ 5766
消 5767
消@@ 5768
消え 5769
消し 5770
消費 5771
渉 5772
焼@@ 5773
焼い 5774
焼き 5775
焼き@@ 5776
焼く 5777
焼け 5778
焦@@ 5779
焦点 5780
照 5781
照@@ 5782
照合 5783
症 5784
症@@ 5785
症状 5786
省 5787
省@@ 5788
省略 5789
硝@@ 5790
祥 5791
称 5792
称@@ 5793
章 5794
章@@ 5795
笑 5796
笑@@ 5797
笑い 5798
笑っ 5799
紹@@ 5800
紹介 5801
肖@@ 5802
蕉 5803
衝 5804
衝@@ 5805
衝撃 5806
裳@@ 5807
訟 5808
訟@@ 5809
証 5810
証@@ 5811
証拠 5812
証明 5813
詔@@ 5814
詳@@ 5815
詳しい 5816
詳しく 5817
詳細 5818
象 5819
象@@ 5820
象徴 5821
賞 5822
賞@@ 5823
醤油 5824
鐘 5825
障 5826
障@@ 5827
障害 5828
鞘 5829
上 5830
上@@ 5831
上がっ 5832
上がり 5833
上がる 5834
上げ 5835
上げる 5836
上位 5837
上下 5838
上限 5839
上司 5840
上手 5841
上昇 5842
丈 5843
乗 5844
乗@@ 5845
乗せ 5846
乗っ 5847
乗り 5848
乗り@@ 5849
乗る 5850
冗@@ 5851
剰 5852
城 5853
城@@ 5854
場 5855
場@@ 5856
場合 5857
場所 5858
場面 5859
壌 5860
嬢 5861
常 5862
常@@ 5863
常識 5864
情 5865
情@@ 5866
情報 5867
条 5868
条@@ 5869
条件 5870
杖 5871
浄 5872
浄@@ 5873
状 5874
状@@ 5875
状況 5876
状態 5877
畳 5878
畳@@ 5879
蒸 5880
蒸@@ 5881
譲 5882
譲@@ 5883
醸@@ 5884
嘱 5885
嘱@@ 5886
飾 5887
飾@@ 5888
飾り 5889
拭 5890
植 5891
植@@ 5892
植え 5893
植物 5894
殖 5895
燭@@ 5896
織@@ 5897
職 5898
職@@ 5899
職員 5900
職業 5901
職場 5902
職人 5903
色 5904
色@@ 5905
色々 5906
色い 5907
色んな 5908
触 5909
触@@ 5910
触っ 5911
触れ 5912
触れる 5913
食 5914
食@@ 5915
食べ 5916
食べ@@ 5917
食べる 5918
食べ物 5919
食事 5920
食品 5921
食料 5922
蝕@@ 5923
尻 5924
尻@@ 5925
伸 5926
伸@@ 5927
伸び 5928
伸縮 5929
信 5930
信@@ 5931
信じ 5932
信号 5933
信用 5934
信頼 5935
侵@@ 5936
唇 5937
唇@@ 5938
寝 5939
寝@@ 5940
寝る 5941
審 5942
審@@ 5943
心 5944
心@@ 5945
心臓 5946
心地 5947
心的 5948
心配 5949
心理 5950
慎@@ 5951
振 5952
振@@ 5953
振っ 5954
振り 5955
振り@@ 5956
振り返@@ 5957
振り返っ 5958
振る@@ 5959
振る舞い 5960
振動 5961
振幅 5962
新 5963
新@@ 5964
新しい 5965
新しく 5966
新た 5967
新宿 5968
新鮮 5969
新聞 5970
新郎 5971
晋 5972
森 5973
森@@ 5974
森林 5975
浸@@ 5976
深 5977
深@@ 5978
深い 5979
深く 5980
申 5981
申@@ 5982
申し 5983
申し@@ 5984
申し上げ 5985
申し訳 5986
真 5987
真@@ 5988
真っ@@ 5989
真ん@@ 5990
真ん中 5991
真剣 5992
真似 5993
真面目 5994
神 5995
神@@ 5996
神経 5997
神戸 5998
神社 5999
神奈川 6000
秦 6001
臣 6002
芯 6003
薪 6004
薪@@ 6005
親 6006
親@@ 6007
親子 6008
親戚 6009
親切 6010
親密 6011
診 6012
診@@ 6013
診断 6014
身 6015
身@@ 6016
身近 6017
身体 6018
身長 6019
辛 6020
辛@@ 6021
進 6022
進@@ 6023
進み 6024
進む 6025
進め 6026
進ん 6027
進化 6028
進行 6029
進歩 6030
針 6031
針@@ 6032
震 6033
震@@ 6034
震災 6035
人 6036
人@@ 6037
人々 6038
人間 6039
人気 6040
人口 6041
人工 6042
人手 6043
人種 6044
人称 6045
人数 6046
人生 6047
人物 6048
人類 6049
仁 6050
仁@@ 6051
刃 6052
塵 6053
尋 6054
尋@@ 6055
甚 6056
甚@@ 6057
尽 6058
尽@@ 6059
腎@@ 6060
迅@@ 6061
陣 6062
陣@@ 6063
靭 6064
笥 6065
諏@@ 6066
須 6067
須@@ 6068
酢 6069
図 6070
図@@ 6071
図る 6072
図書 6073
吹 6074
吹@@ 6075
垂 6076
垂@@ 6077
推 6078
推@@ 6079
推移 6080
推測 6081
推定 6082
推論 6083
水 6084
水@@ 6085
水泳 6086
水準 6087
水族 6088
水道 6089
水分 6090
炊 6091
炊@@ 6092
睡@@ 6093
粋 6094
衰 6095
衰@@ 6096
遂 6097
遂@@ 6098
酔 6099
酔@@ 6100
錐 6101
随 6102
随@@ 6103
随分 6104
瑞@@ 6105
髄 6106
髄@@ 6107
崇@@ 6108
数 6109
数@@ 6110
数え 6111
数学 6112
数字 6113
数値 6114
数量 6115
枢 6116
雛 6117
雛@@ 6118
据@@ 6119
杉 6120
杉@@ 6121
菅 6122
菅@@ 6123
裾 6124
裾@@ 6125
澄@@ 6126
寸 6127
寸@@ 6128
世 6129
世@@ 6130
世の中 6131
世界 6132
世間 6133
世紀 6134
世代 6135
世田谷 6136
世話 6137
瀬 6138
瀬@@ 6139
是@@ 6140
是非 6141
凄@@ 6142
凄い 6143
凄く 6144
制 6145
制@@ 6146
制限 6147
制御 6148
制作 6149
制度 6150
制約 6151
勢 6152
勢@@ 6153
勢い 6154
姓 6155
姓@@ 6156
征@@ 6157
性 6158
性@@ 6159
性格 6160
性質 6161
性能 6162
性別 6163
成 6164
成@@ 6165
成り@@ 6166
成り立っ 6167
成果 6168
成功 6169
成人 6170
成績 6171
成長 6172
成分 6173
成立 6174
政 6175
政@@ 6176
政策 6177
政治 6178
政府 6179
整 6180
整@@ 6181
整合 6182
整備 6183
整理 6184
星 6185
星@@ 6186
晴 6187
晴@@ 6188
晴れ 6189
正 6190
正@@ 6191
正しい 6192
正しく 6193
正解 6194
正確 6195
正規 6196
正月 6197
正常 6198
正直 6199
正答 6200
正面 6201
清 6202
清@@ 6203
牲 6204
生 6205
生@@ 6206
生え 6207
生かし 6208
生き 6209
生き@@ 6210
生きる 6211
生き物 6212
生じ 6213
生じる 6214
生まれ 6215
生まれ@@ 6216
生まれる 6217
生み@@ 6218
生ん 6219
生活 6220
生起 6221
生産 6222
生成 6223
生徒 6224
生物 6225
生命 6226
生理 6227
盛 6228
盛@@ 6229
盛り@@ 6230
盛ん 6231
精 6232
精@@ 6233
精神 6234
精度 6235
聖 6236
聖@@ 6237
聖書 6238
声 6239
声@@ 6240
声質 6241
声帯 6242
声道 6243
声門 6244
製 6245
製@@ 6246
製造 6247
製品 6248
西 6249
西@@ 6250
西武 6251
西洋 6252
誠 6253
誠@@ 6254
誓 6255
請 6256
請@@ 6257
逝@@ 6258
醒 6259
醒@@ 6260
青 6261
青@@ 6262
青い 6263
青年 6264
静 6265
静@@ 6266
静か 6267
静的 6268
斉 6269
斉@@ 6270
税 6271
税@@ 6272
脆@@ 6273
隻 6274
席 6275
席@@ 6276
惜@@ 6277
斥 6278
昔 6279
昔@@ 6280
析@@ 6281
石 6282
石@@ 6283
積 6284
積@@ 6285
積み@@ 6286
積極 6287
籍 6288
績 6289
績@@ 6290
脊@@ 6291
責 6292
責@@ 6293
責任 6294
赤 6295
赤@@ 6296
赤い 6297
赤ちゃん 6298
跡 6299
跡@@ 6300
切 6301
切@@ 6302
切っ 6303
切ら 6304
切り 6305
切り@@ 6306
切る 6307
切れ 6308
拙 6309
拙@@ 6310
接 6311
接@@ 6312
接し 6313
接触 6314
接続 6315
摂 6316
摂@@ 6317
折 6318
折@@ 6319
設 6320
設@@ 6321
設け 6322
設計 6323
設定 6324
設備 6325
窃@@ 6326
節 6327
節@@ 6328
節点 6329
説 6330
説@@ 6331
説得 6332
説明 6333
雪 6334
雪@@ 6335
絶 6336
絶@@ 6337
絶対 6338
舌 6339
舌@@ 6340
仙 6341
仙@@ 6342
仙台 6343
先 6344
先@@ 6345
先行 6346
先生 6347
先端 6348
先程 6349
先頭 6350
先日 6351
先輩 6352
千 6353
千@@ 6354
千葉 6355
占 6356
占@@ 6357
占め 6358
宣@@ 6359
宣伝 6360
専 6361
専@@ 6362
専門 6363
専用 6364
尖 6365
尖@@ 6366
川 6367
川@@ 6368
川口 6369
川崎 6370
戦 6371
戦@@ 6372
戦後 6373
戦前 6374
戦争 6375
戦略 6376
扇 6377
扇@@ 6378
撰 6379
栓 6380
泉 6381
泉@@ 6382
浅@@ 6383
洗 6384
洗@@ 6385
洗っ 6386
洗濯 6387
染 6388
染@@ 6389
潜 6390
潜@@ 6391
潜在 6392
潜時 6393
旋 6394
旋@@ 6395
線 6396
線@@ 6397
線形 6398
繊 6399
繊@@ 6400
羨@@ 6401
腺 6402
舛 6403
船 6404
船@@ 6405
薦 6406
詮 6407
詮@@ 6408
賎 6409
選 6410
選@@ 6411
選ば 6412
選び 6413
選ぶ 6414
選ん 6415
選挙 6416
選好 6417
選手 6418
選択 6419
遷 6420
遷移 6421
銭 6422
鮮@@ 6423
前 6424
前@@ 6425
前回 6426
前期 6427
前後 6428
前提 6429
前半 6430
善 6431
善@@ 6432
漸@@ 6433
然 6434
然@@ 6435
全 6436
全@@ 6437
全く 6438
全て 6439
全員 6440
全国 6441
全然 6442
全体 6443
全般 6444
全部 6445
禅 6446
禅@@ 6447
繕@@ 6448
膳 6449
膳@@ 6450
塑 6451
措@@ 6452
曽@@ 6453
狙@@ 6454
疎 6455
疎@@ 6456
礎 6457
祖 6458
祖@@ 6459
祖父 6460
祖母 6461
粗 6462
粗@@ 6463
素 6464
素@@ 6465
素材 6466
素人 6467
素性 6468
素晴@@ 6469
素晴らしい 6470
素敵 6471
組 6472
組@@ 6473
組み 6474
組み@@ 6475
組み合わせ 6476
組ん 6477
組合 6478
組織 6479
蘇@@ 6480
訴 6481
訴@@ 6482
訴え 6483
阻@@ 6484
遡@@ 6485
僧 6486
僧@@ 6487
創 6488
創@@ 6489
双 6490
双@@ 6491
叢@@ 6492
倉 6493
倉@@ 6494
喪@@ 6495
壮@@ 6496
奏 6497
奏@@ 6498
爽 6499
爽@@ 6500
宋 6501
宋@@ 6502
層 6503
層@@ 6504
想 6505
想@@ 6506
想像 6507
想定 6508
捜@@ 6509
掃 6510
掃@@ 6511
掃除 6512
挿 6513
挿@@ 6514
挿入 6515
掻@@ 6516
操 6517
操@@ 6518
操作 6519
早 6520
早@@ 6521
早い 6522
早く 6523
早速 6524
巣 6525
巣@@ 6526
槽 6527
漕@@ 6528
争 6529
争@@ 6530
痩@@ 6531
痩せ 6532
相 6533
相@@ 6534
相づち 6535
相違 6536
相関 6537
相互 6538
相手 6539
相対 6540
相談 6541
相当 6542
窓 6543
窓@@ 6544
総 6545
総@@ 6546
総合 6547
綜 6548
草 6549
草@@ 6550
荘@@ 6551
葬 6552
葬@@ 6553
葬儀 6554
葬式 6555
蒼 6556
藻 6557
装 6558
装@@ 6559
装置 6560
走 6561
走@@ 6562
走っ 6563
走り 6564
走る 6565
送 6566
送@@ 6567
送っ 6568
送ら 6569
送り 6570
送り@@ 6571
送る 6572
遭@@ 6573
遭っ 6574
騒@@ 6575
騒ぎ 6576
騒音 6577
像 6578
増 6579
増@@ 6580
増え 6581
増える 6582
増やし 6583
増加 6584
増大 6585
憎@@ 6586
臓 6587
臓@@ 6588
蔵 6589
蔵@@ 6590
贈 6591
贈@@ 6592
造 6593
造@@ 6594
造り 6595
促 6596
促@@ 6597
促音 6598
促進 6599
側 6600
側@@ 6601
側面 6602
則 6603
則@@ 6604
即 6605
即@@ 6606
即ち 6607
息 6608
息@@ 6609
息子 6610
捉 6611
捉@@ 6612
捉え 6613
捉える 6614
束 6615
束@@ 6616
測 6617
測@@ 6618
測っ 6619
測る 6620
測定 6621
足 6622
足@@ 6623
足し 6624
足し@@ 6625
足り 6626
速 6627
速@@ 6628
速い 6629
速く 6630
速度 6631
俗 6632
俗@@ 6633
属 6634
属@@ 6635
属する 6636
属性 6637
賊 6638
族 6639
族@@ 6640
続 6641
続@@ 6642
続い 6643
続き 6644
続く 6645
続け 6646
続ける 6647
卒 6648
卒@@ 6649
卒業 6650
袖 6651
揃@@ 6652
揃え 6653
揃っ 6654
存 6655
存@@ 6656
存じ 6657
存在 6658
孫 6659
孫@@ 6660
尊 6661
尊@@ 6662
尊敬 6663
損 6664
損@@ 6665
損失 6666
村 6667
村@@ 6668
遜 6669
遜@@ 6670
他 6671
他@@ 6672
他者 6673
他人 6674
他動 6675
多 6676
多@@ 6677
多々 6678
多い 6679
多かっ 6680
多く 6681
多少 6682
多数 6683
多分 6684
多摩 6685
多様 6686
太 6687
太@@ 6688
太い 6689
太っ 6690
太陽 6691
太郎 6692
汰 6693
唾@@ 6694
堕@@ 6695
妥@@ 6696
妥当 6697
惰@@ 6698
打 6699
打@@ 6700
打ち 6701
打ち@@ 6702
打っ 6703
打つ 6704
楕円 6705
陀 6706
駄@@ 6707
駄目 6708
体 6709
体@@ 6710
体育 6711
体系 6712
体験 6713
体重 6714
体制 6715
体操 6716
体調 6717
体力 6718
堆@@ 6719
対 6720
対@@ 6721
対し 6722
対する 6723
対応 6724
対角 6725
対策 6726
対処 6727
対照 6728
対称 6729
対象 6730
対数 6731
対比 6732
対訳 6733
対立 6734
対話 6735
耐 6736
耐@@ 6737
耐え 6738
帯 6739
帯@@ 6740
帯域 6741
待 6742
待@@ 6743
待ち 6744
待ち@@ 6745
待っ 6746
待遇 6747
怠@@ 6748
態 6749
態@@ 6750
態度 6751
戴 6752
替 6753
替@@ 6754
替え 6755
替える 6756
泰 6757
滞 6758
滞@@ 6759
滞在 6760
胎 6761
胎@@ 6762
腿 6763
袋 6764
貸 6765
貸@@ 6766
貸し 6767
退 6768
退@@ 6769
退職 6770
逮@@ 6771
隊 6772
鯛 6773
代 6774
代@@ 6775
代わり 6776
代替 6777
代表 6778
台 6779
台@@ 6780
台風 6781
大 6782
大@@ 6783
大き 6784
大き@@ 6785
大きい 6786
大きかっ 6787
大きく 6788
大きな 6789
大した 6790
大まか 6791
大会 6792
大学 6793
大型 6794
大好き 6795
大根 6796
大阪 6797
大事 6798
大手 6799
大丈夫 6800
大人 6801
大勢 6802
大正 6803
大切 6804
大体 6805
大抵 6806
大統領 6807
大変 6808
大量 6809
第 6810
第@@ 6811
題 6812
題@@ 6813
鷹@@ 6814
滝 6815
滝@@ 6816
卓 6817
卓@@ 6818
啄@@ 6819
宅 6820
宅@@ 6821
択 6822
択@@ 6823
拓 6824
拓@@ 6825
沢 6826
沢@@ 6827
託 6828
託@@ 6829
鐸 6830
濁 6831
濁@@ 6832
濁音 6833
諾 6834
叩@@ 6835
叩い 6836
但@@ 6837
達 6838
達@@ 6839
達し 6840
達成 6841
辰 6842
辰@@ 6843
奪 6844
奪@@ 6845
脱 6846
脱@@ 6847
脱落 6848
竪@@ 6849
辿@@ 6850
辿っ 6851
辿り@@ 6852
棚 6853
棚@@ 6854
谷 6855
谷@@ 6856
樽 6857
誰 6858
誰@@ 6859
丹 6860
丹@@ 6861
単 6862
単@@ 6863
単なる 6864
単に 6865
単位 6866
単一 6867
単元 6868
単語 6869
単純 6870
単独 6871
嘆 6872
嘆@@ 6873
坦 6874
担 6875
担@@ 6876
担当 6877
担任 6878
探 6879
探@@ 6880
探し 6881
探す 6882
探求 6883
探索 6884
旦@@ 6885
淡 6886
淡@@ 6887
炭 6888
炭@@ 6889
短 6890
短@@ 6891
短い 6892
短く 6893
短縮 6894
端 6895
端@@ 6896
箪@@ 6897
綻 6898
綻@@ 6899
胆 6900
誕生 6901
鍛@@ 6902
団 6903
団@@ 6904
団体 6905
団地 6906
壇 6907
壇@@ 6908
弾 6909
弾@@ 6910
弾い 6911
断 6912
断@@ 6913
断面 6914
暖 6915
暖@@ 6916
檀@@ 6917
段 6918
段@@ 6919
段階 6920
段落 6921
男 6922
男@@ 6923
男の子 6924
男子 6925
男女 6926
男性 6927
談 6928
談@@ 6929
談話 6930
値 6931
値@@ 6932
値段 6933
知 6934
知@@ 6935
知っ 6936
知ら 6937
知り 6938
知る 6939
知覚 6940
知恵 6941
知見 6942
知識 6943
地 6944
地@@ 6945
地域 6946
地下 6947
地球 6948
地区 6949
地元 6950
地震 6951
地図 6952
地点 6953
地方 6954
地名 6955
弛@@ 6956
恥 6957
恥@@ 6958
恥ず@@ 6959
恥ずかしい 6960
智 6961
智@@ 6962
池 6963
池@@ 6964
池袋 6965
痴 6966
痴@@ 6967
稚@@ 6968
置 6969
置@@ 6970
置い 6971
置か 6972
置き 6973
置き@@ 6974
置き換え 6975
置く 6976
致 6977
致@@ 6978
蜘@@ 6979
遅 6980
遅@@ 6981
遅い 6982
遅く 6983
遅れ 6984
遅延 6985
馳@@ 6986
築 6987
築@@ 6988
畜 6989
竹 6990
竹@@ 6991
筑@@ 6992
蓄 6993
蓄@@ 6994
蓄積 6995
逐@@ 6996
秩@@ 6997
窒@@ 6998
茶 6999
茶@@ 7000
嫡@@ 7001
着 7002
着@@ 7003
着い 7004
着き 7005
着く 7006
着物 7007
着目 7008
中 7009
中@@ 7010
中央 7011
中華 7012
中学 7013
中間 7014
中古 7015
中国 7016
中心 7017
中身 7018
中世 7019
中野 7020
仲 7021
仲@@ 7022
仲間 7023
仲良く 7024
宙@@ 7025
忠 7026
忠@@ 7027
抽 7028
抽出 7029
抽象 7030
昼 7031
昼@@ 7032
昼間 7033
柱 7034
注 7035
注@@ 7036
注意 7037
注文 7038
注目 7039
虫 7040
虫@@ 7041
衷 7042
酎 7043
鋳 7044
鋳@@ 7045
駐 7046
駐@@ 7047
駐車 7048
猪 7049
著 7050
著@@ 7051
貯 7052
貯@@ 7053
丁 7054
丁@@ 7055
丁寧 7056
兆 7057
兆@@ 7058
喋@@ 7059
喋っ 7060
喋り 7061
喋る 7062
寵@@ 7063
帖 7064
帳 7065
帳@@ 7066
庁 7067
弔@@ 7068
張 7069
張@@ 7070
張っ 7071
張り 7072
張り@@ 7073
彫@@ 7074
徴 7075
徴@@ 7076
挑@@ 7077
挑戦 7078
暢 7079
朝 7080
朝@@ 7081
朝鮮 7082
朝日 7083
潮 7084
潮@@ 7085
牒 7086
町 7087
町@@ 7088
眺@@ 7089
眺め 7090
聴 7091
聴@@ 7092
聴覚 7093
聴取 7094
腸 7095
蝶@@ 7096
調 7097
調@@ 7098
調べ 7099
調べる 7100
調音 7101
調査 7102
調子 7103
調整 7104
調理 7105
超 7106
超@@ 7107
超え 7108
超える 7109
跳@@ 7110
銚@@ 7111
長 7112
長@@ 7113
長い 7114
長く 7115
長音 7116
長期 7117
長崎 7118
長男 7119
長野 7120
頂 7121
頂@@ 7122
鳥 7123
鳥@@ 7124
勅 7125
勅@@ 7126
捗 7127
直 7128
直@@ 7129
直し 7130
直す 7131
直感 7132
直後 7133
直接 7134
直線 7135
直前 7136
沈@@ 7137
珍@@ 7138
珍しい 7139
賃 7140
賃@@ 7141
鎮@@ 7142
陳 7143
陳@@ 7144
津 7145
津@@ 7146
墜 7147
椎 7148
椎@@ 7149
槌 7150
槌@@ 7151
追 7152
追@@ 7153
追い@@ 7154
追加 7155
追求 7156
痛 7157
痛@@ 7158
痛い 7159
痛く 7160
痛み 7161
通 7162
通@@ 7163
通う 7164
通し 7165
通じ 7166
通っ 7167
通り 7168
通る 7169
通過 7170
通常 7171
通信 7172
通訳 7173
塚 7174
塚@@ 7175
掴@@ 7176
槻 7177
槻@@ 7178
辻 7179
辻@@ 7180
綴@@ 7181
潰@@ 7182
潰し 7183
坪 7184
坪@@ 7185
壷 7186
壷@@ 7187
紬 7188
爪 7189
爪@@ 7190
吊@@ 7191
釣@@ 7192
釣り 7193
鶴 7194
鶴@@ 7195
亭 7196
亭@@ 7197
低 7198
低@@ 7199
低い 7200
低く 7201
低下 7202
停 7203
停@@ 7204
偵 7205
貞 7206
貞@@ 7207
呈 7208
呈@@ 7209
定 7210
定@@ 7211
定め 7212
定位 7213
定期 7214
定義 7215
定型 7216
定常 7217
定数 7218
定年 7219
定量 7220
帝 7221
帝@@ 7222
底 7223
底@@ 7224
庭 7225
廷 7226
弟 7227
弟@@ 7228
抵@@ 7229
抵抗 7230
挺 7231
提 7232
提@@ 7233
提案 7234
提供 7235
提示 7236
提出 7237
梯@@ 7238
禎@@ 7239
程 7240
程@@ 7241
程度 7242
締 7243
締@@ 7244
艇 7245
訂 7246
訂正 7247
諦@@ 7248
諦め 7249
蹄 7250
邸 7251
釘@@ 7252
鼎 7253
泥 7254
泥@@ 7255
摘 7256
摘@@ 7257
敵 7258
敵@@ 7259
滴 7260
的 7261
的@@ 7262
笛 7263
笛@@ 7264
適 7265
適@@ 7266
適し 7267
適応 7268
適合 7269
適切 7270
適当 7271
適用 7272
哲 7273
哲@@ 7274
哲学 7275
徹 7276
徹@@ 7277
撤@@ 7278
鉄 7279
鉄@@ 7280
鉄道 7281
典 7282
典@@ 7283
典型 7284
填 7285
天 7286
天@@ 7287
天気 7288
天皇 7289
展 7290
展@@ 7291
展開 7292
展示 7293
展望 7294
店 7295
店@@ 7296
店員 7297
添 7298
添@@ 7299
転 7300
転@@ 7301
転換 7302
点 7303
点@@ 7304
点数 7305
点線 7306
伝 7307
伝@@ 7308
伝え 7309
伝える 7310
伝わっ 7311
伝達 7312
伝統 7313
殿 7314
澱@@ 7315
田 7316
田@@ 7317
田んぼ 7318
田舎 7319
田中 7320
電 7321
電@@ 7322
電気 7323
電子 7324
電車 7325
電流 7326
電話 7327
兎 7328
吐@@ 7329
塗@@ 7330
徒 7331
徒@@ 7332
渡 7333
渡@@ 7334
渡し 7335
渡っ 7336
渡り 7337
渡る 7338
登 7339
登@@ 7340
登っ 7341
登り 7342
登場 7343
登録 7344
賭@@ 7345
途 7346
途@@ 7347
途端 7348
途中 7349
都 7350
都@@ 7351
都会 7352
都合 7353
都市 7354
都心 7355
都内 7356
努 7357
努@@ 7358
努力 7359
度 7360
度@@ 7361
度合い 7362
土 7363
土@@ 7364
土産 7365
土地 7366
土曜 7367
奴 7368
怒 7369
怒@@ 7370
怒っ 7371
怒ら 7372
怒り 7373
倒 7374
倒@@ 7375
倒れ 7376
党 7377
党@@ 7378
冬 7379
冬@@ 7380
凍 7381
凍@@ 7382
刀 7383
刀@@ 7384
唐 7385
唐@@ 7386
塔 7387
塔@@ 7388
套 7389
宕 7390
島 7391
島@@ 7392
嶋 7393
悼 7394
悼@@ 7395
投 7396
投@@ 7397
投げ 7398
投資 7399
搭@@ 7400
東 7401
東@@ 7402
東京 7403
東北 7404
桃 7405
桃@@ 7406
棟 7407
棟@@ 7408
盗 7409
盗@@ 7410
淘@@ 7411
湯 7412
湯@@ 7413
灯 7414
灯@@ 7415
当 7416
当@@ 7417
当た@@ 7418
当たっ 7419
当たり 7420
当たり前 7421
当たる 7422
当て 7423
当て@@ 7424
当ては@@ 7425
当時 7426
当初 7427
当然 7428
当日 7429
祷 7430
等 7431
等@@ 7432
等価 7433
答 7434
答@@ 7435
答え 7436
答える 7437
筒 7438
筒@@ 7439
糖@@ 7440
統 7441
統@@ 7442
統一 7443
統計 7444
統語 7445
統合 7446
到@@ 7447
到達 7448
到着 7449
董 7450
蕩 7451
藤 7452
藤@@ 7453
討@@ 7454
豆 7455
豆@@ 7456
豆腐 7457
踏 7458
踏@@ 7459
踏まえ 7460
踏み@@ 7461
逃@@ 7462
逃げ 7463
透 7464
透@@ 7465
陶 7466
陶@@ 7467
頭 7468
頭@@ 7469
騰 7470
闘 7471
闘@@ 7472
働 7473
働@@ 7474
働い 7475
働き 7476
働く 7477
動 7478
動@@ 7479
動い 7480
動か 7481
動かし 7482
動かす 7483
動き 7484
動く 7485
動機 7486
動作 7487
動産 7488
動詞 7489
動的 7490
動物 7491
同 7492
同@@ 7493
同じ 7494
同じく 7495
同一 7496
同期 7497
同士 7498
同時 7499
同定 7500
同等 7501
同様 7502
堂 7503
堂@@ 7504
導 7505
導@@ 7506
導出 7507
導入 7508
憧@@ 7509
憧れ 7510
洞 7511
洞@@ 7512
瞳@@ 7513
童 7514
童@@ 7515
胴@@ 7516
道 7517
道@@ 7518
道具 7519
道徳 7520
道路 7521
銅 7522
銅@@ 7523
峠 7524
匿 7525
得 7526
得@@ 7527
得る 7528
得意 7529
得点 7530
徳 7531
徳@@ 7532
涜 7533
特 7534
特@@ 7535
特に 7536
特許 7537
特殊 7538
特性 7539
特徴 7540
特定 7541
特別 7542
特有 7543
督@@ 7544
禿@@ 7545
篤 7546
篤@@ 7547
毒 7548
毒@@ 7549
独 7550
独@@ 7551
独り@@ 7552
独り暮らし 7553
独自 7554
独特 7555
独立 7556
読 7557
読@@ 7558
読ま 7559
読み 7560
読み@@ 7561
読み上げ 7562
読む 7563
読め 7564
読ん 7565
読解 7566
読者 7567
読書 7568
栃@@ 7569
凸 7570
凸@@ 7571
突 7572
突@@ 7573
突き@@ 7574
突っ@@ 7575
突然 7576
届@@ 7577
敦@@ 7578
沌 7579
豚 7580
遁@@ 7581
頓 7582
頓@@ 7583
呑 7584
呑@@ 7585
曇 7586
曇@@ 7587
鈍@@ 7588
奈@@ 7589
奈良 7590
那 7591
那@@ 7592
内 7593
内@@ 7594
内側 7595
内部 7596
内容 7597
薙 7598
謎 7599
鍋 7600
鍋@@ 7601
馴@@ 7602
馴染@@ 7603
馴染み 7604
縄 7605
縄@@ 7606
縄文 7607
南 7608
南@@ 7609
楠 7610
軟 7611
軟@@ 7612
軟ら@@ 7613
難 7614
難@@ 7615
難しい 7616
難しく 7617
汝 7618
二 7619
二@@ 7620
二三 7621
二十 7622
二人 7623
二千 7624
二百 7625
尼 7626
尼@@ 7627
匂@@ 7628
賑@@ 7629
肉 7630
肉@@ 7631
虹@@ 7632
日 7633
日@@ 7634
日々 7635
日間 7636
日記 7637
日系 7638
日頃 7639
日常 7640
日本 7641
日曜 7642
乳 7643
乳@@ 7644
乳児 7645
入 7646
入@@ 7647
入っ 7648
入ら 7649
入り 7650
入り@@ 7651
入り口 7652
入る 7653
入れ 7654
入れ@@ 7655
入れる 7656
入れ替え 7657
入院 7658
入学 7659
入札 7660
入試 7661
入力 7662
如 7663
如@@ 7664
尿 7665
任 7666
任@@ 7667
任せ 7668
任意 7669
妊 7670
妊@@ 7671
妊娠 7672
忍 7673
忍@@ 7674
認 7675
認@@ 7676
認め 7677
認識 7678
認知 7679
認定 7680
濡@@ 7681
寧 7682
葱 7683
猫 7684
猫@@ 7685
熱 7686
熱@@ 7687
年 7688
年@@ 7689
年間 7690
年寄り 7691
年金 7692
年代 7693
年度 7694
年齢 7695
念 7696
念@@ 7697
撚@@ 7698
燃 7699
燃@@ 7700
粘@@ 7701
之 7702
之@@ 7703
嚢 7704
悩 7705
悩@@ 7706
悩み 7707
悩ん 7708
濃 7709
濃@@ 7710
濃い 7711
納 7712
納@@ 7713
納得 7714
能 7715
能@@ 7716
能力 7717
脳 7718
脳@@ 7719
脳磁 7720
農 7721
農@@ 7722
農家 7723
農業 7724
覗@@ 7725
把 7726
把@@ 7727
把握 7728
播 7729
播@@ 7730
覇 7731
覇@@ 7732
波 7733
波@@ 7734
波形 7735
派 7736
派@@ 7737
派遣 7738
琶 7739
破 7740
破@@ 7741
破壊 7742
破裂 7743
婆 7744
罵@@ 7745
芭@@ 7746
馬 7747
馬@@ 7748
俳@@ 7749
廃 7750
廃@@ 7751
拝@@ 7752
排 7753
排@@ 7754
排除 7755
敗 7756
敗@@ 7757
杯 7758
牌 7759
背 7760
背@@ 7761
背景 7762
背中 7763
肺 7764
肺@@ 7765
輩 7766
輩@@ 7767
配 7768
配@@ 7769
配置 7770
配布 7771
配慮 7772
配列 7773
倍 7774
倍@@ 7775
培 7776
培@@ 7777
媒 7778
媒@@ 7779
梅 7780
梅@@ 7781
買 7782
買@@ 7783
買い 7784
買い@@ 7785
買い物 7786
買う 7787
買え 7788
買っ 7789
買わ 7790
売 7791
売@@ 7792
売っ 7793
売り 7794
売り@@ 7795
売る 7796
売れ 7797
陪@@ 7798
這@@ 7799
秤 7800
萩 7801
萩@@ 7802
伯 7803
剥@@ 7804
博 7805
博@@ 7806
博物 7807
拍 7808
拍@@ 7809
柏 7810
柏@@ 7811
泊 7812
泊@@ 7813
泊まっ 7814
白 7815
白@@ 7816
白い 7817
白色 7818
粕@@ 7819
舶 7820
舶@@ 7821
薄 7822
薄@@ 7823
薄い 7824
薄く 7825
迫 7826
迫@@ 7827
漠 7828
漠@@ 7829
爆 7830
爆@@ 7831
爆発 7832
縛 7833
縛@@ 7834
莫@@ 7835
駁 7836
麦 7837
麦@@ 7838
函@@ 7839
箱 7840
箱@@ 7841
箸 7842
肇 7843
肇@@ 7844
幡 7845
肌 7846
畑 7847
畑@@ 7848
八 7849
八@@ 7850
八王子 7851
八十 7852
八千 7853
八百 7854
鉢 7855
発 7856
発@@ 7857
発音 7858
発見 7859
発言 7860
発行 7861
発信 7862
発生 7863
発声 7864
発想 7865
発達 7866
発展 7867
発電 7868
発表 7869
発話 7870
髪 7871
髪@@ 7872
髪の毛 7873
伐 7874
伐@@ 7875
罰 7876
罰@@ 7877
抜 7878
抜@@ 7879
抜い 7880
抜き 7881
抜け 7882
筏 7883
筏@@ 7884
噺 7885
噺@@ 7886
隼@@ 7887
伴 7888
伴@@ 7889
伴う 7890
伴っ 7891
判 7892
判@@ 7893
判断 7894
判定 7895
判別 7896
半 7897
半@@ 7898
半ば 7899
半球 7900
半島 7901
半年 7902
半分 7903
反 7904
反@@ 7905
反映 7906
反応 7907
反射 7908
反省 7909
反対 7910
反復 7911
反面 7912
帆 7913
帆@@ 7914
搬 7915
搬@@ 7916
斑@@ 7917
板 7918
板@@ 7919
氾@@ 7920
汎 7921
汎@@ 7922
汎用 7923
版 7924
版@@ 7925
犯 7926
犯@@ 7927
犯罪 7928
犯人 7929
班 7930
班@@ 7931
繁@@ 7932
般 7933
藩 7934
販 7935
販売 7936
範 7937
範@@ 7938
範囲 7939
範疇 7940
煩@@ 7941
頒@@ 7942
飯 7943
飯@@ 7944
挽@@ 7945
晩 7946
晩@@ 7947
番 7948
番@@ 7949
番号 7950
番組 7951
盤 7952
盤@@ 7953
蛮 7954
蛮@@ 7955
卑 7956
卑@@ 7957
否 7958
否@@ 7959
否定 7960
庇@@ 7961
彼 7962
彼@@ 7963
彼女 7964
悲@@ 7965
悲しい 7966
悲しかっ 7967
悲しみ 7968
扉 7969
批 7970
批@@ 7971
批判 7972
披@@ 7973
披露 7974
斐@@ 7975
比 7976
比@@ 7977
比べ 7978
比べる 7979
比較 7980
比率 7981
比例 7982
泌 7983
疲@@ 7984
疲れ 7985
皮 7986
皮@@ 7987
碑 7988
秘@@ 7989
罷@@ 7990
肥@@ 7991
被 7992
被@@ 7993
被害 7994
被験 7995
誹@@ 7996
費 7997
費@@ 7998
費用 7999
避 8000
避@@ 8001
避け 8002
非 8003
非@@ 8004
非常 8005
飛 8006
飛@@ 8007
飛ばし 8008
飛び@@ 8009
飛ん 8010
飛行 8011
樋 8012
樋@@ 8013
備 8014
備@@ 8015
尾 8016
尾@@ 8017
微 8018
微@@ 8019
微妙 8020
毘@@ 8021
琵@@ 8022
眉@@ 8023
美 8024
美@@ 8025
美しい 8026
美術 8027
美容 8028
鼻 8029
鼻@@ 8030
鼻音 8031
匹 8032
匹@@ 8033
疋 8034
髭 8035
彦 8036
膝 8037
菱 8038
菱@@ 8039
肘 8040
必 8041
必@@ 8042
必ず 8043
必死 8044
必要 8045
筆 8046
筆@@ 8047
筆記 8048
桧 8049
姫 8050
姫@@ 8051
媛 8052
紐 8053
紐@@ 8054
百 8055
百@@ 8056
謬@@ 8057
俵 8058
標 8059
標@@ 8060
標準 8061
標本 8062
氷 8063
氷@@ 8064
漂@@ 8065
票 8066
表 8067
表@@ 8068
表わ@@ 8069
表わさ 8070
表わし 8071
表わす 8072
表記 8073
表現 8074
表示 8075
表情 8076
表層 8077
表面 8078
評 8079
評@@ 8080
評価 8081
評定 8082
描 8083
描@@ 8084
描い 8085
描写 8086
病 8087
病@@ 8088
病院 8089
病気 8090
秒 8091
秒@@ 8092
品 8093
品@@ 8094
品詞 8095
品質 8096
浜 8097
浜@@ 8098
瀕@@ 8099
貧 8100
貧@@ 8101
貧乏 8102
賓@@ 8103
頻 8104
頻@@ 8105
頻度 8106
頻繁 8107
敏 8108
敏@@ 8109
瓶 8110
瓶@@ 8111
不 8112
不@@ 8113
不安 8114
不快 8115
不思議 8116
不足 8117
不便 8118
不満 8119
不要 8120
付 8121
付@@ 8122
付い 8123
付か 8124
付き 8125
付き@@ 8126
付き合い 8127
付き合っ 8128
付く 8129
付け 8130
付け@@ 8131
付ける 8132
付加 8133
付近 8134
付属 8135
付与 8136
夫 8137
夫@@ 8138
夫婦 8139
婦 8140
婦@@ 8141
婦人 8142
富 8143
富@@ 8144
富士 8145
布 8146
布@@ 8147
布団 8148
布置 8149
府 8150
府@@ 8151
怖 8152
怖@@ 8153
怖い 8154
怖く 8155
扶@@ 8156
敷 8157
敷@@ 8158
斧 8159
普 8160
普@@ 8161
普及 8162
普段 8163
普通 8164
普遍 8165
浮@@ 8166
浮か@@ 8167
浮かん 8168
父 8169
父@@ 8170
父親 8171
符 8172
符@@ 8173
符号 8174
腐 8175
腐@@ 8176
膚 8177
譜 8178
譜@@ 8179
負 8180
負@@ 8181
負け 8182
負荷 8183
負担 8184
賦@@ 8185
赴@@ 8186
阜 8187
撫@@ 8188
武 8189
武@@ 8190
舞 8191
舞@@ 8192
舞い 8193
舞台 8194
葡 8195
部 8196
部@@ 8197
部位 8198
部屋 8199
部活 8200
部品 8201
部分 8202
封@@ 8203
風 8204
風@@ 8205
風景 8206
風邪 8207
風呂 8208
伏 8209
伏@@ 8210
副 8211
副@@ 8212
副詞 8213
復 8214
復@@ 8215
幅 8216
幅@@ 8217
服 8218
服@@ 8219
福 8220
福@@ 8221
福祉 8222
腹 8223
腹@@ 8224
複 8225
複@@ 8226
複合 8227
複雑 8228
複数 8229
覆 8230
覆@@ 8231
淵 8232
払@@ 8233
払い 8234
払う 8235
払っ 8236
沸@@ 8237
仏 8238
仏@@ 8239
物 8240
物@@ 8241
物語 8242
物事 8243
物質 8244
物凄い 8245
物凄く 8246
物理 8247
鮒 8248
分 8249
分@@ 8250
分か@@ 8251
分かっ 8252
分から 8253
分かり 8254
分かる 8255
分かれ 8256
分かれる 8257
分かん 8258
分け 8259
分ける 8260
分解 8261
分割 8262
分間 8263
分散 8264
分析 8265
分節 8266
分布 8267
分野 8268
分離 8269
分類 8270
吻 8271
噴@@ 8272
墳 8273
墳@@ 8274
憤 8275
憤@@ 8276
焚@@ 8277
奮 8278
奮@@ 8279
粉 8280
糞 8281
紛@@ 8282
雰囲気 8283
文 8284
文@@ 8285
文化 8286
文学 8287
文句 8288
文献 8289
文字 8290
文書 8291
文章 8292
文節 8293
文体 8294
文中 8295
文法 8296
文末 8297
文脈 8298
文明 8299
聞 8300
聞@@ 8301
聞い 8302
聞か 8303
聞き 8304
聞き@@ 8305
聞き取り 8306
聞き手 8307
聞く 8308
聞こ@@ 8309
聞こえ 8310
聞こえる 8311
併 8312
併@@ 8313
併用 8314
兵 8315
兵@@ 8316
塀 8317
幣 8318
平 8319
平@@ 8320
平安 8321
平滑 8322
平気 8323
平均 8324
平成 8325
平等 8326
平板 8327
平面 8328
平和 8329
弊 8330
弊@@ 8331
柄 8332
並 8333
並@@ 8334
並び 8335
並べ 8336
並み 8337
並ん 8338
並列 8339
蔽 8340
蔽@@ 8341
閉 8342
閉@@ 8343
閉じ 8344
閉鎖 8345
陛@@ 8346
米 8347
米@@ 8348
米国 8349
僻@@ 8350
壁 8351
壁@@ 8352
癖 8353
碧@@ 8354
別 8355
別@@ 8356
別々 8357
別れ 8358
蔑 8359
蔑@@ 8360
偏 8361
偏@@ 8362
偏り 8363
偏差 8364
変 8365
変@@ 8366
変え 8367
変える 8368
変わ@@ 8369
変わっ 8370
変わら 8371
変わり 8372
変わる 8373
変化 8374
変換 8375
変形 8376
変更 8377
変数 8378
変調 8379
変動 8380
片 8381
片@@ 8382
片仮名 8383
片方 8384
篇 8385
篇@@ 8386
編 8387
編@@ 8388
編集 8389
辺 8390
辺@@ 8391
辺り 8392
返 8393
返@@ 8394
返し 8395
返す 8396
返っ 8397
返事 8398
遍 8399
遍@@ 8400
便 8401
便@@ 8402
便利 8403
勉 8404
勉@@ 8405
勉強 8406
娩 8407
弁 8408
弁@@ 8409
弁当 8410
弁別 8411
鞭 8412
保 8413
保@@ 8414
保育 8415
保教 8416
保健 8417
保険 8418
保護 8419
保持 8420
保証 8421
保存 8422
舗 8423
舗@@ 8424
捕 8425
捕@@ 8426
捕っ 8427
歩 8428
歩@@ 8429
歩い 8430
歩き 8431
歩く 8432
甫 8433
補 8434
補@@ 8435
補完 8436
補間 8437
補助 8438
補正 8439
穂 8440
穂@@ 8441
募@@ 8442
募集 8443
墓 8444
墓@@ 8445
暮@@ 8446
暮らし 8447
母 8448
母@@ 8449
母音 8450
母語 8451
母国 8452
母親 8453
母数 8454
簿 8455
菩@@ 8456
倣 8457
倣@@ 8458
包 8459
包@@ 8460
呆 8461
呆@@ 8462
報 8463
報@@ 8464
報告 8465
報酬 8466
報道 8467
奉 8468
奉@@ 8469
宝 8470
宝@@ 8471
峰 8472
峰@@ 8473
峯@@ 8474
崩 8475
崩@@ 8476
崩れ 8477
崩壊 8478
抱 8479
抱@@ 8480
抱え 8481
放 8482
放@@ 8483
放し 8484
放射 8485
放送 8486
方 8487
方@@ 8488
方々 8489
方言 8490
方向 8491
方式 8492
方針 8493
方法 8494
方面 8495
法 8496
法@@ 8497
法則 8498
法律 8499
泡 8500
泡@@ 8501
砲 8502
砲@@ 8503
縫 8504
縫@@ 8505
芳 8506
芳@@ 8507
萌@@ 8508
蓬@@ 8509
蜂@@ 8510
褒@@ 8511
褒め 8512
訪 8513
訪@@ 8514
豊 8515
豊@@ 8516
豊か 8517
豊富 8518
邦 8519
邦@@ 8520
飽 8521
飽@@ 8522
飽き 8523
鳳@@ 8524
乏 8525
乏@@ 8526
亡 8527
亡@@ 8528
亡く@@ 8529
亡くなっ 8530
傍 8531
傍@@ 8532
剖 8533
坊 8534
坊@@ 8535
妨 8536
妨@@ 8537
帽@@ 8538
忘 8539
忘@@ 8540
忘れ 8541
忙 8542
忙しい 8543
忙しく 8544
房 8545
暴 8546
暴@@ 8547
望 8548
望@@ 8549
某 8550
某@@ 8551
棒 8552
棒@@ 8553
冒@@ 8554
冒頭 8555
膨@@ 8556
膨大 8557
謀 8558
貌 8559
貿@@ 8560
鉾 8561
防 8562
防@@ 8563
吠@@ 8564
頬@@ 8565
北 8566
北@@ 8567
北海道 8568
僕 8569
墨 8570
撲 8571
撲@@ 8572
朴 8573
牧@@ 8574
勃@@ 8575
没 8576
没@@ 8577
殆ど 8578
堀 8579
堀@@ 8580
幌 8581
本 8582
本@@ 8583
本屋 8584
本格 8585
本質 8586
本人 8587
本当 8588
本日 8589
本番 8590
本物 8591
本来 8592
翻 8593
翻@@ 8594
翻訳 8595
凡 8596
凡@@ 8597
盆 8598
摩 8599
摩@@ 8600
摩擦 8601
磨 8602
磨@@ 8603
魔 8604
魔@@ 8605
麻 8606
麻@@ 8607
埋@@ 8608
埋め 8609
埋め@@ 8610
埋め込み 8611
妹 8612
枚 8613
枚@@ 8614
毎 8615
毎@@ 8616
毎回 8617
毎週 8618
毎日 8619
毎年 8620
槙@@ 8621
幕 8622
幕@@ 8623
膜 8624
枕 8625
桝 8626
俣 8627
抹@@ 8628
末 8629
末@@ 8630
沫 8631
万 8632
万@@ 8633
慢 8634
慢@@ 8635
満 8636
満@@ 8637
満た@@ 8638
満たす 8639
満足 8640
漫 8641
漫@@ 8642
漫画 8643
蔓 8644
蔓@@ 8645
味 8646
味@@ 8647
味わ@@ 8648
味噌 8649
未 8650
未@@ 8651
未知 8652
未満 8653
未来 8654
魅 8655
魅@@ 8656
魅力 8657
巳 8658
密 8659
密@@ 8660
密度 8661
稔 8662
稔@@ 8663
脈 8664
脈@@ 8665
妙 8666
妙@@ 8667
民 8668
民@@ 8669
民間 8670
民主 8671
民族 8672
眠 8673
眠@@ 8674
務 8675
務@@ 8676
夢 8677
夢中 8678
無 8679
無@@ 8680
無音 8681
無視 8682
無事 8683
無声 8684
無駄 8685
無理 8686
無理やり 8687
牟@@ 8688
矛 8689
矛盾 8690
霧 8691
霧@@ 8692
娘 8693
冥 8694
名 8695
名@@ 8696
名古屋 8697
名詞 8698
名称 8699
名前 8700
命 8701
命@@ 8702
命題 8703
命令 8704
明 8705
明@@ 8706
明らか 8707
明る@@ 8708
明るい 8709
明るく 8710
明確 8711
明治 8712
明示 8713
明日 8714
明瞭 8715
盟 8716
盟@@ 8717
迷 8718
迷@@ 8719
迷惑 8720
銘 8721
銘@@ 8722
鳴 8723
鳴@@ 8724
滅 8725
滅@@ 8726
免 8727
免@@ 8728
免許 8729
綿 8730
綿@@ 8731
面 8732
面@@ 8733
面積 8734
面接 8735
面倒 8736
面白 8737
面白@@ 8738
面白い 8739
面白かっ 8740
面白く 8741
模@@ 8742
模擬 8743
模型 8744
茂 8745
茂@@ 8746
毛 8747
毛@@ 8748
猛 8749
盲 8750
盲@@ 8751
網 8752
網@@ 8753
網羅 8754
蒙 8755
蒙@@ 8756
儲@@ 8757
木 8758
木@@ 8759
黙 8760
黙@@ 8761
目 8762
目@@ 8763
目指し 8764
目指す 8765
目的 8766
目標 8767
勿@@ 8768
勿論 8769
餅@@ 8770
尤 8771
尤も 8772
尤度 8773
戻@@ 8774
戻し 8775
戻っ 8776
戻り 8777
戻る 8778
貰@@ 8779
貰っ 8780
問 8781
問@@ 8782
問い 8783
問い@@ 8784
問わ 8785
問診 8786
問題 8787
紋 8788
紋@@ 8789
門 8790
門@@ 8791
也 8792
也@@ 8793
冶 8794
冶@@ 8795
夜 8796
夜@@ 8797
夜中 8798
爺 8799
野 8800
野@@ 8801
野球 8802
野菜 8803
弥 8804
弥@@ 8805
弥生 8806
矢 8807
矢@@ 8808
矢印 8809
厄 8810
厄@@ 8811
役 8812
役@@ 8813
役割 8814
役者 8815
役所 8816
約 8817
約束 8818
薬 8819
薬@@ 8820
訳 8821
訳@@ 8822
躍 8823
躍@@ 8824
靖@@ 8825
柳 8826
柳@@ 8827
薮 8828
愉@@ 8829
油 8830
油@@ 8831
癒 8832
癒@@ 8833
諭 8834
諭@@ 8835
輸 8836
輸@@ 8837
輸入 8838
唯@@ 8839
唯一 8840
優 8841
優@@ 8842
優しい 8843
優しく 8844
優れ 8845
優勝 8846
優先 8847
勇 8848
勇@@ 8849
勇気 8850
友 8851
友@@ 8852
友人 8853
友達 8854
憂 8855
憂@@ 8856
有 8857
有@@ 8858
有意 8859
有効 8860
有声 8861
有無 8862
有名 8863
有用 8864
柚 8865
柚@@ 8866
湧@@ 8867
猶@@ 8868
由 8869
由@@ 8870
祐@@ 8871
裕 8872
裕@@ 8873
誘 8874
誘@@ 8875
遊 8876
遊@@ 8877
遊び 8878
遊ぶ 8879
遊ん 8880
遊園 8881
郵@@ 8882
郵便 8883
雄 8884
雄@@ 8885
融 8886
融@@ 8887
融合 8888
夕 8889
夕@@ 8890
夕方 8891
予 8892
予@@ 8893
予め 8894
予稿 8895
予算 8896
予想 8897
予測 8898
予定 8899
予備 8900
予約 8901
余 8902
余@@ 8903
余り 8904
余計 8905
余裕 8906
与 8907
与@@ 8908
与え 8909
与える 8910
誉 8911
誉@@ 8912
輿 8913
輿@@ 8914
預@@ 8915
幼@@ 8916
幼児 8917
幼稚 8918
妖@@ 8919
容 8920
容@@ 8921
容易 8922
容器 8923
庸 8924
揚 8925
揚@@ 8926
揺 8927
揺@@ 8928
揺らぎ 8929
揺れ 8930
擁@@ 8931
曜 8932
曜@@ 8933
様 8934
様@@ 8935
様子 8936
様態 8937
洋 8938
洋@@ 8939
洋服 8940
溶@@ 8941
用 8942
用@@ 8943
用い 8944
用いる 8945
用意 8946
用言 8947
用語 8948
用法 8949
用例 8950
窯 8951
羊 8952
羊@@ 8953
葉 8954
葉@@ 8955
葉っぱ 8956
要 8957
要@@ 8958
要する 8959
要ら 8960
要因 8961
要求 8962
要旨 8963
要請 8964
要素 8965
要約 8966
要領 8967
謡 8968
謡@@ 8969
踊 8970
踊@@ 8971
踊り 8972
遥 8973
遥か 8974
陽 8975
陽@@ 8976
養 8977
養@@ 8978
抑 8979
抑@@ 8980
抑圧 8981
欲 8982
欲@@ 8983
欲しい 8984
沃 8985
浴 8986
浴@@ 8987
翌 8988
翌@@ 8989
翌日 8990
翼 8991
淀@@ 8992
羅 8993
羅@@ 8994
螺@@ 8995
裸 8996
裸@@ 8997
来 8998
来@@ 8999
来る 9000
来年 9001
莱 9002
頼@@ 9003
頼ん 9004
雷 9005
雷@@ 9006
洛@@ 9007
絡 9008
絡@@ 9009
落 9010
落@@ 9011
落ち 9012
落ち@@ 9013
落ちる 9014
落ち着い 9015
落と@@ 9016
落とし 9017
乱 9018
乱@@ 9019
卵 9020
卵@@ 9021
嵐 9022
欄 9023
欄@@ 9024
濫 9025
藍 9026
藍@@ 9027
覧 9028
利 9029
利@@ 9030
利益 9031
利点 9032
利用 9033
履 9034
履@@ 9035
履歴 9036
李 9037
梨 9038
梨@@ 9039
理 9040
理@@ 9041
理解 9042
理想 9043
理由 9044
理論 9045
璃 9046
痢 9047
裏 9048
裏@@ 9049
裡 9050
里 9051
里@@ 9052
離 9053
離@@ 9054
離れ 9055
陸 9056
陸@@ 9057
律 9058
律@@ 9059
率 9060
率@@ 9061
立 9062
立@@ 9063
立た 9064
立ち 9065
立ち@@ 9066
立っ 9067
立つ 9068
立て 9069
立てる 9070
立場 9071
立体 9072
立派 9073
掠@@ 9074
略 9075
略@@ 9076
流 9077
流@@ 9078
流し 9079
流れ 9080
流れる 9081
流行 9082
溜@@ 9083
溜まっ 9084
溜め 9085
琉@@ 9086
留 9087
留@@ 9088
留学 9089
硫@@ 9090
粒 9091
粒@@ 9092
隆 9093
隆@@ 9094
竜 9095
竜@@ 9096
龍@@ 9097
侶 9098
慮 9099
慮@@ 9100
旅 9101
旅@@ 9102
旅行 9103
虜 9104
了 9105
了@@ 9106
了解 9107
僚 9108
両 9109
両@@ 9110
両耳 9111
両者 9112
両親 9113
両方 9114
凌@@ 9115
寮 9116
料 9117
料@@ 9118
料金 9119
料理 9120
梁 9121
涼@@ 9122
猟 9123
療 9124
療@@ 9125
瞭@@ 9126
稜@@ 9127
良 9128
良@@ 9129
良い 9130
良かっ 9131
良く 9132
遼 9133
遼@@ 9134
量 9135
量@@ 9136
量子 9137
領 9138
領@@ 9139
領域 9140
力 9141
力@@ 9142
緑 9143
緑@@ 9144
倫 9145
倫@@ 9146
林 9147
林@@ 9148
臨 9149
臨@@ 9150
輪 9151
輪@@ 9152
隣 9153
隣@@ 9154
隣り 9155
隣接 9156
瑠@@ 9157
塁 9158
涙 9159
累@@ 9160
類 9161
類@@ 9162
類型 9163
類似 9164
令 9165
例 9166
例@@ 9167
例えば 9168
例外 9169
例文 9170
冷 9171
冷@@ 9172
冷蔵 9173
励 9174
励@@ 9175
嶺 9176
玲@@ 9177
礼 9178
礼@@ 9179
鈴 9180
鈴@@ 9181
零@@ 9182
霊 9183
霊@@ 9184
麗 9185
麗@@ 9186
齢 9187
暦 9188
歴 9189
歴@@ 9190
歴史 9191
列 9192
列@@ 9193
劣 9194
劣@@ 9195
劣化 9196
烈 9197
烈@@ 9198
裂 9199
裂@@ 9200
恋 9201
恋@@ 9202
煉@@ 9203
練 9204
練@@ 9205
練習 9206
蓮 9207
蓮@@ 9208
連 9209
連@@ 9210
連れ 9211
連鎖 9212
連続 9213
連体 9214
連中 9215
連用 9216
連絡 9217
呂 9218
呂@@ 9219
魯@@ 9220
櫓 9221
炉 9222
炉@@ 9223
路 9224
路@@ 9225
露 9226
露@@ 9227
労 9228
労@@ 9229
労働 9230
廊 9231
廊@@ 9232
弄 9233
朗 9234
朗@@ 9235
朗読 9236
楼 9237
楼@@ 9238
浪 9239
浪@@ 9240
漏 9241
漏@@ 9242
漏れ 9243
狼@@ 9244
篭 9245
篭@@ 9246
老 9247
老@@ 9248
老人 9249
聾 9250
聾@@ 9251
郎 9252
郎@@ 9253
六 9254
六@@ 9255
六十 9256
六千 9257
六百 9258
麓 9259
禄 9260
録 9261
録@@ 9262
録音 9263
論 9264
論@@ 9265
論じ 9266
論文 9267
論理 9268
倭 9269
倭@@ 9270
和 9271
和@@ 9272
和歌 9273
話 9274
話@@ 9275
話さ 9276
話し 9277
話し@@ 9278
話し言葉 9279
話し手 9280
話す 9281
話者 9282
話題 9283
歪@@ 9284
歪み 9285
賄@@ 9286
脇 9287
脇@@ 9288
惑 9289
惑@@ 9290
枠 9291
枠@@ 9292
枠組み 9293
鰐@@ 9294
詫@@ 9295
椀 9296
湾 9297
湾@@ 9298
碗 9299
腕 9300
腕@@ 9301
丼 9302
乖@@ 9303
于 9304
佰@@ 9305
俎@@ 9306
俯@@ 9307
僭@@ 9308
儚@@ 9309
冑 9310
决 9311
几@@ 9312
凰 9313
刮@@ 9314
刹 9315
匕 9316
咎@@ 9317
呟@@ 9318
咀@@ 9319
咄 9320
咄@@ 9321
咬@@ 9322
哺@@ 9323
喘@@ 9324
喩 9325
嗅@@ 9326
嗜@@ 9327
嚆@@ 9328
嚥@@ 9329
嚼 9330
囃@@ 9331
址 9332
壅 9333
夾@@ 9334
奢 9335
姆@@ 9336
姚 9337
婉@@ 9338
媚@@ 9339
尓 9340
屏@@ 9341
已@@ 9342
幇@@ 9343
彙 9344
彙@@ 9345
彭@@ 9346
徂@@ 9347
徠 9348
忖@@ 9349
恣@@ 9350
惧 9351
慇@@ 9352
愧 9353
慙@@ 9354
憚 9355
憑 9356
懃 9357
戈@@ 9358
扁@@ 9359
拗@@ 9360
拮@@ 9361
揆 9362
揉@@ 9363
揶@@ 9364
揄 9365
摯 9366
撥@@ 9367
敲 9368
旒 9369
无@@ 9370
曖@@ 9371
曖昧 9372
曰@@ 9373
曵 9374
枡@@ 9375
柯 9376
柩 9377
檜 9378
桎@@ 9379
梏 9380
梵@@ 9381
棘 9382
楫@@ 9383
楮 9384
榜 9385
檻 9386
櫂 9387
鬱 9388
鬱@@ 9389
氈 9390
汪 9391
泄 9392
泓 9393
衍 9394
洵@@ 9395
洒落 9396
渕 9397
渤@@ 9398
灌@@ 9399
漱 9400
漱@@ 9401
潘@@ 9402
濘 9403
瀝@@ 9404
炒@@ 9405
炒め 9406
炸@@ 9407
焉 9408
焉@@ 9409
煌 9410
爛@@ 9411
瑣 9412
璧 9413
疼@@ 9414
痰 9415
痺 9416
眩@@ 9417
睾@@ 9418
瞰 9419
矮@@ 9420
祀 9421
祠 9422
祓@@ 9423
窩 9424
筐@@ 9425
筌 9426
筥@@ 9427
筧 9428
箋 9429
紆@@ 9430
絆 9431
緻 9432
緻@@ 9433
縊@@ 9434
繹 9435
翔 9436
耒 9437
聘 9438
聚 9439
聚@@ 9440
胚@@ 9441
隋 9442
腑 9443
腱 9444
膠@@ 9445
舩 9446
艘 9447
荀@@ 9448
茹@@ 9449
莽 9450
蓁 9451
蔡@@ 9452
蓼 9453
蘂 9454
藉 9455
虔@@ 9456
蛛 9457
蜆@@ 9458
蝸@@ 9459
裔 9460
褪@@ 9461
訛 9462
詢 9463
誂@@ 9464
誦 9465
誦@@ 9466
謗 9467
謳@@ 9468
譚 9469
貪@@ 9470
贅@@ 9471
蹊 9472
蹤 9473
躇 9474
躊@@ 9475
躬@@ 9476
躰 9477
輻@@ 9478
迪@@ 9479
邇 9480
逍@@ 9481
邁 9482
鈔 9483
銛 9484
鍮 9485
閾 9486
閾@@ 9487
閾値 9488
闊@@ 9489
陋 9490
陟 9491
霹@@ 9492
靂 9493
勒 9494
頷@@ 9495
顫@@ 9496
餞@@ 9497
饉 9498
饅@@ 9499
馮 9500
駱 9501
駱@@ 9502
騙@@ 9503
驥@@ 9504
鬘 9505
魏 9506
魏@@ 9507
魍@@ 9508
魎 9509
魑@@ 9510
靡 9511
黎@@ 9512
齟@@ 9513
齬 9514
